{"specials": ["<pad>", "<unk>", "<bos>", "<eos>"], "tokens": ["<pad>", "<unk>", "<bos>", "<eos>", "\n", " ", "!", "\"", "#", "$", "%", "&", "'", "(", ")", "*", "+", ",", "-", ".", "/", "0", "1", "2", "3", "4", "5", "6", "7", "8", "9", ":", ";", "<", "=", ">", "?", "@", "A", "B", "C", "D", "E", "F", "G", "H", "I", "J", "K", "L", "M", "N", "O", "P", "Q", "R", "S", "T", "U", "V", "W", "X", "Y", "Z", "[", "\\", "]", "^", "_", "`", "a", "b", "c", "d", "e", "f", "g", "h", "i", "j", "k", "l", "m", "n", "o", "p", "q", "r", "s", "t", "u", "v", "w", "x", "y", "z", "{", "|", "}", "~", "he", " t", " a", " s", " w", "nd", " the", "ed", " and", " b", "in", " to", " h", "re", " wa", " f", "it", "ou", "is", "er", " c", " l", " m", " d", " T", " he", " p", " o", " was", "om", "at", "ay", "ar", "il", "ing", " g", " The", "id", "an", " n", " ha", "en", "im", " S", " sa", "or", "ll", " is", "es", "on", " th", " it", " H", "et", "ir", "ow", "le", " her", "ot", " She", " in", " He", "ver", "ut", "ck", " y", " e", " They", " I", " u", "ig", "ld", "oo", "ily", " \"", " st", " r", "am", " said", " be", "ve", "ith", "ke", "ce", " with", " pl", " of", "Lily", "pp", " she", " on", " 1", " you", "On", "ri", "hat", "ked", " so", "ad", "nt", " his", " =", " day", "very", "st", " that", "'s", " an", " Lily", " up", " play", "ch", "el", " had", " B", " they", " mom", " W", " we", "un", " for", " tim", "al", "my", "ould", " do", "all", " li", "ly", "ent", "se", "The", " happ", "itt", " want", " sh", "out", "her", " k", " 2", " 3", " big", " M", "end", "ound", " sm", " not", "ome", " very", " time", " A", " It", " ne", "ittle", "ht", " there", " little", " happy", "ra", " 4", " re", "riend", " friend", " but", " saw", "ter", "ack", "One", " as", "ore", " 5", "ry", "ake", " 6", " +", "'t", "ide", " se", " lo", "ved", "ug", " 7", " are", "Once", " loo", " 8", " go", " were", " Tim", " 9", " bo", " too", "us", " j", " him", " -", "ec", " upon", "ays", "ill", "ard", " What", "irl", " wanted", "ur", "wer", " at", " them", " girl", "ind", " sp", "um", " out", " what", "ul", "hen", " ca", " have", " their", " did", " can", " could", "ain", "art", " smil", " wh", "rom", " ex", "lp", "swer", "ic", " nam", " man", " went", "hed", " all", " J", "ood", "round", " help", "ight", " kn", " Ben", " friends", " no", "ful", "hing", " le", "n't", " wor", "ark", "one", " cl", " Y", " back", "dd", " named", " fun", " answer", " One", " fe", "ro", " loved", " me", " ro", " Tom", "oug", "elt", " Timmy", " sc", " *", " bir", " toy", " felt", " smiled", " al", "side", " asked", "ick", " like", " co", "get", "ame", " looked", " see", " bird", "ong", " says", " around", "ure", "way", " some", "ice", "omet", "op", "ag", "as", " boy", "est", " would", "uch", "own", " than", "ree", " start", " away", "ell", "ep", " fa", "ings", " has", "ade", " F", " somet", " ag", "gether", " make", "ared", "king", "oud", " from", " But", " You", " together", "if", " started", " made", "ie", " br", " L", " ran", "ook", " park", " or", "ach", "ue", " car", " something", " E", " sad", "ited", " new", " put", "ust", " ot", " then", " get", " bl", " D", " other", "ab", " again", " found", " good", " exc", " when", " home", " more", " fl", " hug", "pl", " la", "ried", " much", " sw", " ch", " who", "ought", "pped", " wal", " ab", " one", "uck", " N", "ess", " playing", " dog", " dec", "ite", "ara", "ally", "ist", " pr", "ny", " got", "ous", " things", "ss", " many", " down", " excited", " C", " v", " liked", " your", " An", " every", " came", "qu", " find", " bec", "ax", " decid", "ers", " decided", "ang", "our", "ouse", "ant", " care", " small", " ?", "na", " ke", "ive", " feel", " gra", " dad", " scared", " ball", "ap", " Then", "udd", "ave", " min", " tree", " po", " my", "arn", " about", "ways", " Mom", "They", " cat", " will", " didn't", " always", " toys", " took", "nder", " how", " ow", " know", " ho", " How", " mommy", " thought", "ia", " kne", "fe", " look", "are", " lot", "on't", " old", "ise", " outside", " int", "ink", " Sam", "ched", "ret", "ened", " learn", "ma", "et's", "ish", "eci", "fter", " take", " Max", "etter", "ak", " laug", " 0", "reat", " pe", "ull", "ged", " tw", " knew", "ob", " tr", " sor", "ven", " this", " water", "udden", " any", "ecial", " special", " sun", " mo", " show", " run", "ber", " stor", " eat", " R", " sl", "uddenly", "ank", " com", " each", "imal", " house", " animal", " minus", "ion", "But", " just", " sk", "use", " into", "ct", "irst", " told", " col", " sorry", " own", " op", " clo", " hand", " played", " expl", "ump", " en", " tried", " gave", "ty", " inside", " proud", " str", " times", "ause", " need", " if", " G", "ace", " room", "other", " over", " couldn't", " We", " qu", " P", " plus", " never", "ft", "ort", " box", " word", " fo", "dy", " pick", " heard", "ate", "ile", " hugged", " long", " because", " by", " wat", "and", " Every", "here", "Tom", " pret", "iz", "'m", " color", " nice", "oth", " Anna", " bear", "Mom", " gr", " list", " Sara", " call", " Wh", " off", "urt", "urp", "ving", "les", "ital", " try", "em", "cy", "sel", "ild", "ough", " story", "bb", "gry", " learned", " unt", " better", " love", " So", " flow", " Jack", "ase", " fast", " until", "ves", " bu", "cks", "ars", " best", "pital", "urn", " kind", "pt", "ady", " sn", " end", " cle", " dre", " im", "Yes", " ta", " even", " And", " sky", " Jo", "Th", " animals", " jump", " us", " Mia", " che", " Her", " ad", "He", " book", " careful", "iny", "ine", "aut", " don't", "vent", " gard", "by", " garden", " fi", " thanked", " bra", " beaut", " say", " te", " laughed", "lew", "oy", "self", " cu", " red", "able", " two", " wo", " capital", " called", " lots", "ane", " gl", " still", " loud", " hurt", "iful", " beautiful", "It", " way", " From", "ool", "ning", "ies", " under", " hard", " keep", " lived", " ar", " come", "be", "ip", "kay", " clos", " now", " fam", " His", "hn", " does", "Tim", "ucy", " fly", "hes", "xt", "You", "ect", " both", " rem", " safe", " only", "igh", " its", " flew", " brave", " imp", " bad", " stay", "ople", "oon", "When", " dra", " walked", " fin", " Lily's", " blue", " should", " con", " doll", "ished", " fr", " clean", " pic", " fore", " family", " Do", " tra", "led", "ge", " angry", "age", "urpr", " people", "dded", " When", " fish", " surpr", "ac", " soon", " yell", " wind", " next", "fore", " share", " going", "illy", " ground", " shiny", " pretty", " far", " kept", "ary", " First", "ised", " sto", "ummy", "Let's", " door", "eet", "Ben", "ble", " gre", "ied", " yes", " advent", " explore", " noise", " ey", " before", " cry", " Lucy", " opened", "thing", " it's", " kit", "What", " ide", "rog", " tre", " K", "ff", " turn", " nodded", " Bob", " while", " truck", "ange", "th", " great", " wr", " war", " real", "ount", " bigg", "imb", " feeling", " picked", " climb", " app", " bed", "That", " strong", " num", " idea", "llow", "so", "No", " thr", " boat", " un", " walk", " Sp", " also", "ture", "aybe", "Thank", " picture", "iss", " am", " three", " smile", " owns", " walking", " after", " follow", "day", "iced", " jo", "ted", " wait", " ma", "ting", "ember", " adventure", "joy", " tal", "ious", " food", " less", " stopped", " bro", " rock", " listen", " ask", " eyes", "co", " being", " frog", "ance", " repl", " hands", "av", "ught", " de", " Sue", " watch", " Suddenly", " give", " remember", " Who", " forest", " rain", " looking", "ich", " Answer", " sound", " dif", " del", "bye", " enjoy", " okay", " place", "maz", "lease", " dis", " amaz", " slide", " ever", " yellow", "akes", " mor", " Can", " blo", " noticed", "ream", " think", " vo", " I'm", " flowers", "Suddenly", " ac", "She", "ized", "amp", "bit", " Add", " As", " Dad", " Th", "gan", " wonder", " night", " replied", " quick", " showed", " ye", " mean", "abbit", " work", " shout", " near", " tow", " became", " right", " birds", " here", " O", " head", " rabbit", "I'm", " import", " our", "ren", " use", "lly", " everyone", "leep", " mag", " dr", " stick", " important", " bag", " high", "ES", "We", " YES", " where", "bbed", " green", " bright", " watched", " pain", " NO", "uff", "An", " tell", " left", " curi", "Look", "So", " cont", "air", " diffe", " quickly", " grass", " goodbye", " z", "ila", " closer", " voice", " been", " face", "ass", " hop", " child", "ndma", " curious", " store", " sure", " cook", " open", " dress", "orn", " pu", " sing", " Spot", " first", " warm", " hat", " anym", " anymore", " bel", " Mommy", " Is", "rent", "ush", "Her", " fav", "isy", " different", " forg", " cake", "Sara", " duck", "Can", " sweet", "ached", " bigger", " John", " mon", "ins", "ater", " butter", "Anna", " fire", " fell", "ired", " mar", "ppy", "kes", " per", " helped", "'re", " lea", " kitc", " kitchen", " hold", "ath", " ate", " tall", " pull", "unny", "Jo", " light", "After", "It's", " sees", " name", " bit", " jumped", " swim", "der", " let", " happened", " soft", "ike", " flo", " kid", " dro", " words", " gi", " brother", "anc", " Jane", " beh", " stop", " cr", " pink", " glad", " game", " grabbed", " squ", "uit", " lost", " bre", " prin", "mer", " sand", " sho", "zy", " rest", "ast", " world", " flower", " cut", " reached", " letter", " cra", " mess", " tri", " having", " through", " favor", " Z", " favorite", " shouted", " yummy", " ready", "nts", "olly", " worry", " Everyone", " pap", "aisy", " lady", " magic", " realized", "ud", "ully", "ik", "Wow", " pond", "ient", " done", "ards", "ather", "As", " began", " really", "imes", " funny", " tired", " thing", "where", " draw", " catch", " blocks", "ens", "ered", "Mommy", " cried", " comp", " Em", " waved", "ation", " pare", " bunny", "ken", "eddy", "fully", " seen", " butterf", " looks", " tast", "ster", " himself", " Let's", " mum", "ign", " underst", " part", "iver", " din", " fill", " hair", " can't", " read", "Don't", " another", "ined", " sleep", " Sarah", " books", " kids", " coming", " trees", " cold", " perf", " All", " slow", " cool", " ste", " fix", " prom", " making", "oney", "ows", " pretend", " contin", " white", " used", " mouse", "bo", " swing", "Timmy", " hole", " thank", " That", " Joe", "ely", " There", " In", " el", " No", " seed", " why", " touch", " surprise", " running", " After", " dark", " parents", " worked", "ued", " number", "cked", " paper", " sat", " smell", " behind", " set", " hopped", " happily", " creat", " delic", " doing", " let's", " wood", " remembered", " It's", " full", " V", "rel", " plan", " dri", " lion", " Timmy's", " dream", " snow", "Hell", "Hello", " wished", " Jen", " these", " floor", "gs", " top", " Benny", "Wh", "gon", " pre", " St", " cloud", " carefully", " wear", " laugh", "John", " needed", " enjoyed", " buy", " years", "sh", " ve", " ice", " lesson", " move", " butterfly", " held", " hill", " bow", " spot", " build", " plant", "anger", "ph", " cars", " herself", " please", "arl", "os", " cand", " seeds", "Sam", " su", " cast", " anything", "rot", " black", "key", " air", "cess", " likes", "aby", " hun", " arri", " hear", " followed", "lf", " finished", " bug", " hid", " fair", "asure", " wrong", " friendly", "lls", "uffy", " else", "reed", "ner", "man", " brown", "inally", " talk", "aught", " surprised", " pet", " children", "'ll", " dir", " Daisy", " hot", "That's", "ix", " colors", " bus", " morning", " orange", " gent", " Sally", " arrived", " tight", " fall", " arm", " wonderful", "ey", "ower", " rel", " window", " song", " close", "a's", "ross", "ield", "bers", " bike", " table", " delicious", " cup", " someone", " continued", " mus", " met", " understand", "ask", " Now", " gone", "From", " might", " Lila", " purp", " heav", "room", " filled", " res", " dinner", "ash", "row", " forgot", " sail", " able", "icy", " purple", " mat", "Then", "ctor", " castle", "oup", " makes", " leaves", " pat", "Jack", " danc", "ol", " vis", " add", " count", " moment", " poin", " grandma", " balloon", " scary", " agreed", " tail", " broken", " wants", "This", " puppy", "ence", " others", " wet", " enough", " kite", "red", " amazing", "not", " getting", " cannot", " pictures", " mother", "ire", " break", " Billy", "que", " grow", " must", " trying", " faster", " numbers", " ru", "ries", " hungry", " cookies", " finally", " fewer", " train", " This", " smaller", " music", " baby", " dance", " brought", " pi", "ons", "At", "His", " squir", " climbed", " Maybe", " Gra", " few", " turned", " listened", " fruit", " perfect", "ever", " clot", "oe", " smiles", "zz", " des", "oring", " Which", " clothes", "app", " sometimes", " danger", " squirrel", " stayed", " asks", " beach", " owl", " daddy", "ister", " pus", "ama", "ott", " Fl", "pe", " everything", " waited", "outh", " pol", " dragon", " pen", "iet", " teddy", " miss", " job", "elc", "Maybe", " deep", " wasn't", " tower", "ads", " spl", "ucky", "ier", " stamp", "ina", " strange", " lake", " visit", " sear", "Oh", " amazed", " land", " alone", "aw", " fight", " hide", "rew", " ride", " silly", " Kim", "ze", " woods", "ated", " wings", " spark", " flying", " sit", " Give", " cream", " roll", " explain", " fox", " towards", "eter", "ah", "ames", " joy", " pulled", " moral", " owner", " bott", "thy", " ra", " river", " sister", " promised", " doctor", "orm", "llo", "apped", " pro", " party", "Max", " ju", "ugg", " gu", "cket", " U", " win", "aj", "igg", "ng", " Amy", " treasure", " today", " gif", "ity", " leave", " fur", "cle", " candy", " shar", " Tommy", " seem", " living", " carrot", " shared", " welc", "ee", " monkey", " side", "ear", "ises", " field", " farmer", "unch", " ele", "ling", " treat", " dolls", " princess", " mix", " spo", " mouth", " grate", " worried", "Okay", "ssed", "eces", " shap", " Carl", " Start", " join", " blank", " grateful", " helping", " em", " pieces", " magical", "ipp", " runs", " shells", " paint", " thinks", " Zoe", " slowly", " pot", " beads", " without", " att", " blanket", " belie", " everywhere", " chair", " gray", " Molly", "set", " crying", " wall", " order", "immy", " sign", "chool", " smart", "ctly", " live", "used", " money", " shop", " To", "fort", " nap", " ring", "orrow", " pig", " Raj", " dangerous", "ually", " reach", " school", " spoon", " most", " stepped", " quiet", "iko", "oom", " step", " coat", "Hi", " cho", " heavy", " bowl", "ions", " pie", " Jill", " gets", " Thank", " gives", "ira", " stamps", "Why", "Sure", " colorful", " dirty", " Fluffy", " kiss", " drink", "OK", " kites", " bee", "ipped", "me", "bles", " such", " pass", "up", " sec", "ased", " acc", " snack", "mar", "ale", "avi", " lar", " Omar", " closed", " gold", "ek", " across", " bar", " Noah", " heal", " heart", " rocks", " broke", " disapp", " bri", "ident", " tom", " scream", " town", "weet", " race", " tiny", " corn", " hig", " twins", " year", "ming", " bath", " free", " marbles", " stuck", " buck", " teac", " same", "asket", "els", " eating", "va", "less", "ment", "ung", " threw", " goes", " je", " cow", " lon", " cour", "iting", " Yu", " Yuk", " Yuki", "ract", " hoped", " On", " basket", "ored", " quest", " cray", " well", " young", "eared", " Ravi", " Rep", " yard", " drum", " welcome", " secret", " lonely", " spr", " Tara", " butt", " course", " days", "per", " shoes", " neigh", "og", "ney", " believe", " gentle", " neighb", " sang", " stand", " higher", " hor", "ere", " comes", "bs", "Mia", "phant", " clapped", " veget", " teacher", " monster", " letters", "br", " games", " bite", " whe", " gift", " soup", "era", " feels", " pushed", " ben", " pack", "oes", " cheered", "ils", "ountain", " upset", " elephant", " pocket", " wouldn't", " star", " accident", " apple", " swings", " hit", " bring", " Mr", "vel", " Vik", " fairy", " eg", "yan", " Emma", " smo", "ord", "idge", " coll", "cean", " longer", " rainb", " noises", " sea", " jour", " explained", "Finally", "ead", "land", " band", " tool", " dry", "ventually", " inst", "ible", " dropped", " drove", " lunch", " Aiko", " adventures", " biggest", "Lila", "pect", " bark", " happen", " caught", " bought", " pers", "ony", " neck", "yard", " mil", "ult", " spid", " Daddy", " plac", " par", " planet", "oun", " exploring", " moved", " backyard", " hugs", " swam", " along", "ana", " Gyan", "fused", " juice", "alm", " compared", " seemed", " forget", "ese", "You're", " suddenly", "Bob", " past", " king", " wise", " bran", " branch", "itten", " nose", "ours", "itting", " cou", " turns", " naught", " wish", " ocean", " goat", " singing", "ittens", " Put", " Tweet", " bucket", "itty", "unt", " rainbow", " naughty", " farm", " woke", " mine", " es", " belong", " ph", " stars", " late", " bench", " milk", " dist", " apples", " nearby", " trou", " Take", " lamp", "sy", " rob", "lph", " plants", " fence", " shook", " nod", " cave", " legs", " I'll", " key", " Grandma", " sick", " sock", " Nina", " pres", " taking", " though", "col", " af", " mark", " exa", " busy", " exactly", " relie", " bottle", " sounds", " bat", " Mary", " hello", " Tell", " Reply", " power", " Come", "Lily's", " Mira", "Do", " laughing", "Later", " carry", " nest", " kno", " stories", " arms", "ors", "vered", " takes", " driver", " smallest", " lay", " danced", " piece", " wondered", " mail", " horse", " patient", " inv", "ball", " pill", "aughter", " present", "ps", " whist", " round", "ward", " sunny", "oose", "ped", " mist", "ose", " clouds", "Of", " cute", " eag", "raid", " throw", " later", " card", " tou", " afraid", " breat", " jar", " Ch", " cir", " mad", " Re", " Eva", " Inside", " meet", "pping", " wra", "ining", " gigg", "shine", " honey", " zoo", " sitting", " eas", " exciting", " tun", "gged", " sunshine", " boun", "ha", " lift", "sting", " holds", " Does", " that's", " craw", " nothing", "la", " daughter", " fan", " watching", "to", " shapes", " storm", " Count", " snowman", " spider", " relieved", "ces", " cozy", "ub", " rocket", " touched", " which", " stone", " mang", " Finally", " disco", " won't", " cheese", " robot", " intere", "ungle", " accidentally", "ize", " life", " fit", " lad", " puzz", " stre", "board", "case", " jungle", " lem", "irt", "And", " comfort", "eth", " pudd", " journey", "thday", " instead", " peace", " huge", " creature", " holding", " street", "ten", " Mama", " vill", " organ", " swimming", " path", "ness", "ubb", " imag", " grand", "pper", "adow", " inc", " forever", "ove", " oven", " minut", " sol", " desk", " Soon", " Jimmy", "aur", " ce", "Hey", "Good", " bush", "Lucy", "itch", " sharp", "epend", "ape", " stronger", " lucky", " kick", " city", " last", "ost", " smiling", "read", " ret", " act", " birthday", " talked", " fing", " spin", " keeps", " pointed", " anyone", " write", " nut", " Sammy", " healthy", " tomorrow", " smelled", " hope", " feather", "blem", " problem", "bled", " mod", " bread", " searched", " return", " plane", " tasty", " pract", " crayons", "gy", "ert", " calm", "fish", " bricks", "lla", " promise", " onto", " hel", " moon", "ned", " Mittens", " kitten", " knee", " If", " sandw", "isa", " Go", "ope", " interesting", " foot", " sur", "ides", " zoom", " Somet", "Come", " respect", "ont", " lang", " langu", " ap", " sal", " wide", " sack", " adm", " rolled", "amed", " wolf", " inse", "ses", " button", " teach", " mountain", " front", " whole", "ete", " loves", " suc", " wild", " wave", "ts", " ent", " person", " lemon", " coin", " gather", " ladder", " rope", " myster", " di", " couch", " insect", " tasted", " gently", "eb", "aking", " asleep", " puts", " ob", " Be", " lovely", " places", " saf", " rec", " Jenny", " Please", " road", " mom's", "ching", " collect", "ude", "In", " helpful", " emb", " pile", " cheer", " language", " mach", " impre", " building", " chick", " Mon", " older", " talking", " push", " stat", " ash", " shr", "ory", " prot", "rite", " shining", " spent", " feet", " confused", " pony", " waiting", " thin", "urse", " questions", "pa", " screamed", "ife", " giant", "ones", " spotted", " ducks", " wearing", "arra", " protect", "Tommy", " embarra", "Just", " Yes", " bal", " wom", "ables", " Al", " Write", " woman", "ird", " corner", " spicy", " ser", " tea", "izz", " trouble", " neighbor", " eggs", " That's", " pretended", "owed", "Every", " village", " hon", " pop", " delight", " worm", " finish", "What's", " matter", "Molly", " supp", " sheep", " forgive", " Kitty", " true", " faces", " stir", " compl", " furry", " colour", " splas", " Tom's", " bags", " cart", "iger", " mangoes", "ular", " mud", "lex", " appeared", " scar", " vase", " shirt", " phone", "ooking", " whenever", "erry", "ches", " pool", "ustr", " trust", " chocol", " dogs", " snake", " bubb", "St", " test", " net", " songs", " hen", " Wren", " puddle", " clever", " seat", " cookie", " que", " flut", " eventually", " blew", " cloth", " shy", " With", "aser", " taste", " dirt", " drive", "cer", " Sometimes", " pour", " vegetables", " minutes", " ant", "Now", " exam", " gun", " wash", " ign", " embarrassed", " teeth", " Some", " chocolate", " Good", " weak", "lebr", " bugs", " you're", " large", " celebr", " fixed", " smooth", "andy", " Tim's", " ham", " Why", " mind", "Mum", " hours", "airs", " ban", "My", "als", " remind", "gly", "Soon", " follows", " queen", " ear", " hiding", " At", "ime", " hum", " wip", "nic", "ates", " puzzle", " ugly", " picnic", "old", " fruits", " '", " deer", " tightly", " neckl", "let", "arm", " mot", " finds", " paw", " sticks", " spe", " stret", " seek", "aid", " taller", " Only", " trip", " stood", " tries", "vous", " rude", " grew", " gas", "arth", " med", "ighed", "ground", " bridge", " machine", "ail", " fancy", " val", " Just", " pin", "unk", " carrots", " Emily", " What's", " group", " forward", " TV", "amb", " Their", " Sort", " Pia", " save", " ple", " Lisa", " barked", " eager", " whistle", " hears", " sparkly", " fold", " socks", " splash", " knocked", " ner", " maybe", " necklace", "ond", " carried", " swan", " wore", "ano", " Len", " rac", " drew", " meant", " jumping", " shelf", " creative", "umber", " spray", " nervous", " sil", "lo", " fighting", " parrot", " sleepy", "box", "den", " gen", " powerful", " ship", " Sami", "ying", " Le", " cross", " shows", "elly", " Bel", " Zane", " leg", " sour", " jog", " treats", " mysterious", " string", "oin", " spread", " roar", " larg", " flag", " bell", " pri", "roph", "dle", " sel", " week", " hidden", " tells", "umpy", " block", " burn", " Mona", " emp", "izzy", " stra", " yelled", " whis", "ym", " disappoin", " Fr", "light", " landed", " motor", " knight", " Ir", " empty", " tid", " breath", " alph", " alphab", " alphabet", " statue", "ual", " grab", " exp", " decor", " largest", " polite", "ffe", " pizz", " Bobo", " lamb", " chased", " missed", " mir", " You're", "imp", " often", "ian", " four", " pillow", " cage", " sharing", " peaceful", "ote", " Together", " clear", " ashamed", " chest", "eterm", " reg", "itive", "llie", " Ann", " Br", " hos", " hospital", " hunt", "ced", " snacks", " determ", " gar", " yarn", " standing", " selfish", " asking", "fl", "ror", "ature", " scarf", "itter", " frustr", "ye", " De", " Uma", " Everywhere", "usie", " cries", " wrote", " rod", " easy", " fig", " gener", " disappointed", "oof", " circ", " spoken", " nods", " bees", " knowing", " giggled", "There", " sque", " Johnny", " chew", " jew", "udy", " leaf", " become", " pir", " scr", " Mum", " hammer", " mirror", " tem", "Mama", " check", "issors", "oby", "Be", "Please", " feed", "Jane", " frustrated", " ang", "ilt", "mb", " Jake", " fear", " carp", " dancing", "ery", "Stop", " wagon", " scissors", " board", " pray", " Emil", " island", " bathroom", " model", "ella", " notes", " line", " meadow", " painted", "most", " pizza", "kin", "osaur", " Peter", " saved", " joke", " police", "Where", " rad", "cept", "illi", " square", " spoil", " Yara", " garage", " magn", " cri", "ator", " Even", "owing", " success", " Are", " generous", " bored", " honest", " sweetie", " almost", "orry", " Chen", " hur", " comfortable", " taught", "ging", "ensive", " Ben's", " Fum", " Fumi", " playground", " expensive", "pack", " finger", " Teddy", " clown", "vi", " shore", "Are", " Don't", "'d", "ti", " answered", " understood", " OK", "Dad", " means", " jelly", " ruined", " stuff", " excite", " fil", " tears", "ato", "pill", " sailed", " sandwich", "peci", "pecially", "Sarah", " rose", " yourself", " passed", " plate", " tidy", " especially", " measure", " pan", " seal", " Bl", " law", " cows", " Devi", " clap", " match", " hang", "ants", "iv", " tick", "Sue", " messy", " dinosaur", " excitement", "ots", " hopping", " wagged", " cater", " caterpill", " kissed", " magnet", " wheel", " penc", "iddle", " waves", " heavier", "wards", "fi", "To", " closet", "aken", " ba", " My", " dove", " crab", " eye", "illed", " determined", "iff", " pleased", " brush", " dest", " tag", " won", " cover", " ind", " mistake", " dire", " lock", " Iris", " body", " spend", "reen", " taken", " returned", " poor", " fine", " fake", " wis", "uddy", " grumpy", " drawing", "Jimmy", " ok", " bone", " suit", " Toby", " fluffy", " twirl", " lit", " mic", " Ko", " Kofi", " gathered", " moving", " balance", " pil", " tools", " sug", " Vera", " hurts", " esc", " borrow", " tiger", "selves", " middle", "Jill", " packed", " gate", " wander", " boring", " working", "ibb", " fridge", " trains", " whale", " eng", " sold", " jack", " sugar", " vegetable", " glue", " caterpillar", " helm", " perform", " rows", " flute", " ears", " Jim", " disappeared", " End", "uce", " incred", " sighed", " helmet", " change", "iding", " tunn", " six", " Tweety", " class", " soap", " balls", "elp", " market", "iness", " stones", " prince", " jacket", " Nils", " bedroom", "ushed", "aged", " ed", " pay", " content", " feathers", " banana", " Rex", " drank", "ines", " rice", "Who", " tie", " glass", " knife", " thankful", " Lena", " shape", " unus", " unusual", " mole", " walks", " cact", " dish", " cher", "Me", " crawled", " lying", " father", "anged", " splashed", "Sorry", " horn", " depend", " lazy", "und", " chicken", " cam", " tent", " Red", "Help", "omed", "port", " incredible", " jam", " towel", " cactus", " covered", "Their", " lead", " discovered", " organized", " rough", " question", " goose", " relax", " choose", " what's", " thick", " yog", " mov", " short", " colourful", " adventur", " skipped", " bake", " trucks", " Blue", " ur", " cleaned", " decide", " er", " mighty", "anut", " accept", " boss", "Al", " map", " fool", " calling", " famous", " guess", " camera", " picks", " happening", " adventurous", "How", " rat", "iol", "ination", " Asha", " dizzy", " tray", " carpet", "imed", " Susie", "ating", "Gra", " rare", "ues", " umb", " umbre", " distance", " weal", "umbled", " mummy", " picking", " falls", "asing", " pointing", " impressed", " Cl", " lose", " jewel", " needs", " engine", " boys", " coins", " sailor", "pes", " branc", " branches", " winter", " foolish", " van", " cro", " loses", " Fin", " grace", " wrapped", " once", " brilli", " ones", " brick", " fis", " Hello", " dependable", " frown", " offered", " sight", "urkey", " grown", " log", " medic", " smelly", "hip", " brilliant", "Mummy", "uct", " clay", " dig", " candle", " Leo", " angel", " frogs", " comput", "cient", "Billy", "tern", " scare", " safely", " medicine", " tunnel", "fic", " mixed", " managed", " peach", " ancient", " weird", " noisy", " flash", " diffic", "edient", " kindness", " silver", "ested", " rub", " ter", " twig", " viol", " pebb", "yal", " peanut", "ume", "ern", " sna", " study", "fast", "ork", " walls", "uggled", " bitter", " Brown", "eg", " giving", "body", " rul", " breakfast", " crown", " umbrella", " difficult", " pencil", "Amy", " chase", "Joe", "keep", " sounded", "ique", " beet", " licked", " apol", "din", " Pete", " team", " dolph", " moms", "ured", " unique", " wealthy", " edge", " liz", " nurse", " apolog", " guit", " Bobby", " Hana", " melt", " sugg", " jeal", " jealous", " louder", "het", "Sp", " wand", "zed", " rich", " Fred", " shoot", " cone", "emo", " Max's", " cab", " cabin", " Ducky", " bottom", "we", "time", " toug", " obedient", " squee", " tele", " buttons", "Sally", " dull", " crack", " terri", " skin", "aghet", "aghetti", " loyal", " cop", " painting", " boxes", "work", "oph", "ages", "ci", " bubbles", " spaghetti", " dreams", "Well", " added", " harm", " bull", " computer", " Sm", " crow", " icy", " sell", " lean", " Mrs", " Bella", " sunfl", " explan", " explanation", " belonged", " record", " lizard", " realised", " stri", " Sn", " twist", "ext", " tough", " figure", " cheerful", " violin", " roof", " grandpa", " guitar", " acorn", " balloons", "laimed", " shake", " sword", "erc", "rag", " char", "gu", " smoke", " search", "head", "ject", " pee", "dge", "Jen", " Not", " whisp", " alphabetic", " Number", " Jena", "Here", " ext", " fre", " exclaimed", " beetle", " lights", " fork", " rode", " aunt", " those", " snee", " favour", " against", " ref", "sc", " juicy", " turt", " hats", "ress", "irp", "fa", "ention", "una", " trunk", " built", " above", " useful", " libr", " crayon", " salad", " Cap", " fal", " Bela", "keeper", " yours", " circles", " helps", " egg", " lifted", "oop", " rep", " alre", " already", " nosy", " favourite", " happiness", " cudd", " tummy", " tank", " tape", " hipp", " longest", "berries", " print", " earth", "ately", " Mummy", "amond", " low", " Today", " thoughtful", " enjoying", " compass", " practice", " kinds", " diamond", "lies", " dreamed", " ber", " berries", "iable", " extra", "ents", " harder", " turtle", " Alice", " independ", " slipped", " sides", " needle", " reliable", " bushes", "umsy", " dreaming", " penny", " leaving", " rh", " envel", " Capital", " straw", " Little", " excitedly", " saying", " eld", " office", "Re", " triang", "arsh", " task", " Mar", " counted", " circle", " attic", " unlo", " scrat", " lower", " hippo", "oppy", " stumbled", " loudly", " bossy", " resc", " terrible", " cost", " thanks", " successful", " stubb", " stubborn", " wake", " delighted", " ribb", " See", "uring", " invited", " Anna's", " shell", " screen", " fresh", " gem", " cur", " reminded", " design", " barn", " pebble", "upid", " movie", "ouses", " pants", " escape", " prep", "vice", " using", " showing", " playful", " pale", " knows", " independent", " evening", " hi", " fountain", " bald", " zeb", " zebra", " envelope", " Snow", " leop", "ither", " directly", " sunflower", " yet", "alk", " cleaning", " bean", "ric", " Tr", " cooking", " notice", " spoiled", " Nemo", " learning", " rubbed", " While", " forth", " girl's", " clumsy", " bird's", "inal", "ola", " explored", " norm", " stairs", " whispered", " son", " fier", " houses", " scale", " Raj's", " spun", " soar", "Em", " Whenever", " compet", " dead", " laughs", " washed", "Spot", " shone", " news", " searching", "iginal", " kicked", " suggested", " stream", " sofa", " joined", " bounce", " elder", " patch", " march", " stove", " brightly", " gasped", " mem", " quite", " normal", " serious", " bump", " stupid", "uby", " mel", "nam", " Rose", " triangle", "Ow", " poured", " warned", " rushed", "orge", "ache", " compassion", " solve", " meal", "oc", " fierce", " flashlight", " brace", " bracelet", "izen", " ways", " original", " prize", " pilot", " frag", "ipe", " eraser", " Tweetie", " fright", " Each", "uss", " ing", " cheap", " nuts", " trained", " themselves", " pump", " admired", " valu", " attract", "See", " ingred", " ingredient", " destro", " regular", "apping", " spilled", " elderly", "ndpa", "ffee", " Hey", " categ", " category", " gum", " thirst", " metal", " pirate", " space", " changed", " wrap", " Pe", "dom", " Your", "illa", " ol", " Luna", " graceful", " wiped", " daisy", " pos", "ala", " locked", " valuable", "com", " zip", " zipp", " chose", " guard", " sniff", " Co", " env", " thirsty", " cards", "berry", " advice", " imagined", " pow", " drawer", "isk", " Hi", " ingredients", " wheat", " post", "corn", "ultip", " guil", " guilty", " delicate", " oak", "rage", " hive", " enorm", " enormous", "arian", " fragile", " early", "eorge", " troph", " chairs", " batter", " rails", " raced", " beak", " hung", " skip", "angar", "angaroo", " dolphin", " Multip", " Multiply", " cats", "ision", " sne", "Timmy's", " marble", " kangaroo", " coffee", " doesn't", " Ella", " frightened", " object", " nature", " Look", " sett", " arg", "oomy", "ief", " ordin", " ordinary", " friend's", " sparkled", " coco", " cocoa", " popcorn", " careless", " mis", " counting", " clock", " unk", " appre", " Polly", " cush", " swe", " Buddy", "cod", " windows", " barber", " finding", "aul", "While", " intell", " intellig", " rever", " thinking", " turkey", " handle", " ax", " appreci", " Where", " leopard", " celebrate", " sent", " loll", "ipop", " ped", " appear", " stranger", " deliver", " collar", " Smith", " mush", "gust", " lollipop", " flex", " ins", " growing", " telling", " enc", " package", " stops", " pige", " crocod", " fastest", " disgust", " rece", "ecause", " may", " steal", " perm", "apa", " Mike", " fat", " blink", " impat", "umpet", "nown", " travel", " impress", " napkin", "gen", " Rob", " eagle", " pine", " refused", " led", " intelligent", " parade", " hairy", " vine", " simp", " trumpet", " destroy", " tied", " spoons", " opens", " restaur", " pengu", " Zoe's", " flexible", " peeked", " fingers", " impatient", " axe", " proudly", " stage", " charming", " art", " missing", " laser", " melon", " shark", " ten", " bin", " eight", " otter", " Alex", " lowercase", " spoke", " humble", " friendship", " sudden", " discover", "ray", " bicy", " Dave", "orant", " sorts", " positive", " Ruby", " comb", " towers", " trophy", " gor", " Mark", " hay", " resist", " boats", "illie", "ium", "ative", " spring", " hose", " hurry", "anny", " wheels", " names", "rn", " belt", "cycle", " blow", "ino", "atter", " stickers", " restaurant", " mop", " pasta", " repair", " brighter", " Sh", " sleeping", "ict", " football", " reading", " butterflies", " witch", "under", " berry", " maze", " jolly", " Pip", " Mir", " math", "uel", " mushroom", " jug", " alert", " compassionate", " placed", "Let", " ignorant", " toast", " noteb", " notebook", " veil", " hero", " Bu", " pepper", " cricket", "erman", " envious", " half", "ugged", " ending", "Alice", "robe", " unknown", " tuna", " slid", " moder", " hunter", " pigeon", " neg", " crocodile", " reco", " vie", " rules", "comfort", "ince", "umb", "ained", " bicycle", " dad's", " thief", " rug", " thunder", " Mira's", " dug", " disgusting", " view", " shiver", " surf", " harmless", "iches", " modern", " flour", " gira", " waff", " cooler", " uncle", " sym", " Use", " Ravi's", " chasing", " bent", " uncomfort", " uncomfortable", " twirled", " anx", " painter", " impro", " mailbox", " send", "ado", " hedge", " purse", " yaw", " crazy", " chim", " chimney", " piano", " station", "arry", " negative", " Find", "ctop", "ctopus", "gn", " respectful", " soil", " allowed", " human", " reind", " reinde", " neat", " knock", " gorilla", "bol", " pens", " Carl's", " Coco", "apan", " octopus", " super", " arrow", " reindeer", " fro", " persist", " sauce", " Un", " coo", "loo", " encou", "ophie", " upper", "ina's", " impressive", " tap", " enth", " symbol", " tooth", "host", " agree", "cream", " base", "mand", " ig", " igloo", " unpack", " library", " trash", " distant", " Ab", " sandwiches", " scatter", " birdie", " load", " batht", " uppercase", "Go", " speed", "ience", " ahead", " sadly", " anxious", " anywhere", " Papa", " wing", " leash", " shadow", " shoe", " Thanks", " enthus", " oat", " bathtub", " carrying", " chain", " mask", " swinging", " slides", " create", " brothers", " simple", " snuggled", " shield", " recogn", " shopkeeper", "med", " creatures", " aftern", " afternoon", " glove", " shocked", " seven", " ribbon", " listening", " gifted", "iron", " hook", "iday", " av", "uth", " repe", "osie", " tire", " ticket", " lab", "owels", " driving", " ghost", " harsh", " vest", "uc", "ummer", "Mary", "Yay", " phot", " cardboard", " rag", " starts", " cell", " vowels", " seco", " second", " attractive", " onion", " nicely", " motorcycle", " bandage", " Jerry", " track", " decorate", "oot", " opp", " wire", " muff", " raven", " film", " barks", " tomato", "ikes", " goal", " badly", " trap", " Jack's", " pattern", " shine", " reverse", " miser", " miserable", " boy's", " camp", " behave", " squash", "render", " anch", " organize", " Joey", " vol", " Water", " beep", " crawl", " persistent", " shaking", " stirred", " helpless", " sle", " stretched", " anyway", " pretending", "inocer", "inoceros", " gym", " Grandpa", " forgave", " putting", " cere", " shel", "shed", " aw", " practiced", " man's", " tricks", " surrender", " anchor", " truth", " trick", "iskers", "ilet", " troubled", "cut", "aled", " fearful", " chickens", " stack", " cushion", " papers", "Give", " Jul", " toilet", " microph", " microphone", " wishes", " beauty", " courage", " climbing", " spinning", " rhinoceros", "ef", " zipper", " Kim's", " German", " ener", " giggle", " itself", " seas", " dust", "ices", " torn", " cap", " mill", " insects", " sink", " monkeys", " yogurt", "If", "af", " Here", "vail", "Little", " summer", " Lola", " gloomy", " Kate", " jumps", " bounced", " knot", "icle", " shouts", "ron", "atoes", " oy", " Ollie", " popular", " size", " pole", " Grace", " avail", " steps", " softly", " distur", " dive", " cryst"], "merges": [["h", "e"], [" ", "t"], [" ", "a"], [" ", "s"], [" ", "w"], ["n", "d"], [" t", "he"], ["e", "d"], [" a", "nd"], [" ", "b"], ["i", "n"], [" t", "o"], [" ", "h"], ["r", "e"], [" w", "a"], [" ", "f"], ["i", "t"], ["o", "u"], ["i", "s"], ["e", "r"], [" ", "c"], [" ", "l"], [" ", "m"], [" ", "d"], [" ", "T"], [" ", "he"], [" ", "p"], [" ", "o"], [" wa", "s"], ["o", "m"], ["a", "t"], ["a", "y"], ["a", "r"], ["i", "l"], ["in", "g"], [" ", "g"], [" T", "he"], ["i", "d"], ["a", "n"], [" ", "n"], [" h", "a"], ["e", "n"], ["i", "m"], [" ", "S"], [" s", "a"], ["o", "r"], ["l", "l"], [" ", "is"], ["e", "s"], ["o", "n"], [" t", "h"], [" ", "it"], [" ", "H"], ["e", "t"], ["i", "r"], ["o", "w"], ["l", "e"], [" he", "r"], ["o", "t"], [" S", "he"], [" ", "in"], [" H", "e"], ["v", "er"], ["u", "t"], ["c", "k"], [" ", "y"], [" ", "e"], [" The", "y"], [" ", "I"], [" ", "u"], ["i", "g"], ["l", "d"], ["o", "o"], ["il", "y"], [" ", "\""], [" s", "t"], [" ", "r"], ["a", "m"], [" sa", "id"], [" b", "e"], ["v", "e"], ["it", "h"], ["k", "e"], ["c", "e"], [" w", "ith"], [" p", "l"], [" o", "f"], ["L", "ily"], ["p", "p"], [" s", "he"], [" o", "n"], [" ", "1"], [" y", "ou"], ["O", "n"], ["r", "i"], ["h", "at"], ["k", "ed"], [" s", "o"], ["a", "d"], ["n", "t"], [" h", "is"], [" ", "="], [" d", "ay"], ["ver", "y"], ["s", "t"], [" th", "at"], ["'", "s"], [" a", "n"], [" ", "Lily"], [" u", "p"], [" pl", "ay"], ["c", "h"], ["e", "l"], [" ha", "d"], [" ", "B"], [" the", "y"], [" m", "om"], [" ", "W"], [" w", "e"], ["u", "n"], [" f", "or"], [" t", "im"], ["a", "l"], ["m", "y"], ["ou", "ld"], [" d", "o"], ["a", "ll"], [" l", "i"], ["l", "y"], ["en", "t"], ["s", "e"], ["T", "he"], [" ha", "pp"], ["it", "t"], [" wa", "nt"], [" s", "h"], ["ou", "t"], ["he", "r"], [" ", "k"], [" ", "2"], [" ", "3"], [" b", "ig"], [" ", "M"], ["e", "nd"], ["ou", "nd"], [" s", "m"], [" n", "ot"], ["om", "e"], [" ", "very"], [" tim", "e"], [" ", "A"], [" I", "t"], [" n", "e"], ["itt", "le"], ["h", "t"], [" the", "re"], [" l", "ittle"], [" happ", "y"], ["r", "a"], [" ", "4"], [" ", "re"], ["ri", "end"], [" f", "riend"], [" b", "ut"], [" sa", "w"], ["t", "er"], ["a", "ck"], ["On", "e"], [" a", "s"], ["o", "re"], [" ", "5"], ["r", "y"], ["a", "ke"], [" ", "6"], [" ", "+"], ["'", "t"], ["id", "e"], [" s", "e"], [" l", "o"], ["v", "ed"], ["u", "g"], [" ", "7"], [" a", "re"], ["On", "ce"], [" l", "oo"], [" ", "8"], [" g", "o"], [" we", "re"], [" T", "im"], [" ", "9"], [" b", "o"], [" to", "o"], ["u", "s"], [" ", "j"], [" h", "im"], [" ", "-"], ["e", "c"], [" up", "on"], ["ay", "s"], ["il", "l"], ["ar", "d"], [" W", "hat"], ["ir", "l"], [" want", "ed"], ["u", "r"], ["w", "er"], [" a", "t"], [" the", "m"], [" g", "irl"], ["i", "nd"], [" s", "p"], ["u", "m"], [" ", "out"], [" w", "hat"], ["u", "l"], ["he", "n"], [" c", "a"], [" ha", "ve"], [" the", "ir"], [" d", "id"], [" c", "an"], [" c", "ould"], ["a", "in"], ["ar", "t"], [" sm", "il"], [" w", "h"], ["r", "om"], [" e", "x"], ["l", "p"], ["s", "wer"], ["i", "c"], [" n", "am"], [" m", "an"], [" w", "ent"], ["he", "d"], [" a", "ll"], [" ", "J"], ["oo", "d"], ["r", "ound"], [" he", "lp"], ["ig", "ht"], [" k", "n"], [" B", "en"], [" friend", "s"], [" n", "o"], ["f", "ul"], ["h", "ing"], [" l", "e"], ["n", "'t"], [" w", "or"], ["ar", "k"], ["on", "e"], [" c", "l"], [" ", "Y"], [" b", "ack"], ["d", "d"], [" nam", "ed"], [" f", "un"], [" an", "swer"], [" ", "One"], [" f", "e"], ["r", "o"], [" lo", "ved"], [" m", "e"], [" r", "o"], [" T", "om"], ["ou", "g"], ["el", "t"], [" Tim", "my"], [" s", "c"], [" ", "*"], [" b", "ir"], [" to", "y"], [" f", "elt"], [" smil", "ed"], [" a", "l"], ["s", "ide"], [" as", "ked"], ["i", "ck"], [" li", "ke"], [" c", "o"], ["g", "et"], ["am", "e"], [" loo", "ked"], [" se", "e"], [" bir", "d"], ["on", "g"], [" s", "ays"], [" a", "round"], ["u", "re"], ["w", "ay"], [" s", "ome"], ["i", "ce"], ["om", "et"], ["o", "p"], ["a", "g"], ["a", "s"], [" bo", "y"], ["es", "t"], [" w", "ould"], ["u", "ch"], ["ow", "n"], [" th", "an"], ["re", "e"], [" st", "art"], [" a", "way"], ["e", "ll"], ["e", "p"], [" f", "a"], ["ing", "s"], [" ha", "s"], ["ad", "e"], [" ", "F"], [" s", "omet"], [" a", "g"], ["get", "her"], [" m", "ake"], ["ar", "ed"], ["k", "ing"], ["ou", "d"], [" f", "rom"], [" B", "ut"], [" Y", "ou"], [" to", "gether"], ["i", "f"], [" start", "ed"], [" m", "ade"], ["i", "e"], [" b", "r"], [" ", "L"], [" r", "an"], ["oo", "k"], [" p", "ark"], [" o", "r"], ["a", "ch"], ["u", "e"], [" c", "ar"], [" somet", "hing"], [" ", "E"], [" sa", "d"], ["it", "ed"], [" ne", "w"], [" p", "ut"], ["u", "st"], [" o", "t"], [" the", "n"], [" g", "et"], [" b", "l"], [" ", "D"], [" ot", "her"], ["a", "b"], [" ag", "ain"], [" f", "ound"], [" g", "ood"], [" ex", "c"], [" w", "hen"], [" h", "ome"], [" m", "ore"], [" f", "l"], [" h", "ug"], ["p", "l"], [" l", "a"], ["ri", "ed"], [" m", "uch"], [" s", "w"], [" c", "h"], [" wh", "o"], ["oug", "ht"], ["pp", "ed"], [" wa", "l"], [" a", "b"], [" on", "e"], ["u", "ck"], [" ", "N"], ["es", "s"], [" play", "ing"], [" do", "g"], [" d", "ec"], ["it", "e"], ["ar", "a"], ["all", "y"], ["is", "t"], [" p", "r"], ["n", "y"], [" g", "ot"], ["ou", "s"], [" th", "ings"], ["s", "s"], [" man", "y"], [" d", "own"], [" exc", "ited"], [" ", "C"], [" ", "v"], [" li", "ked"], [" you", "r"], [" A", "n"], [" e", "very"], [" c", "ame"], ["q", "u"], [" f", "ind"], [" be", "c"], ["a", "x"], [" dec", "id"], ["er", "s"], [" decid", "ed"], ["an", "g"], ["ou", "r"], ["ou", "se"], ["an", "t"], [" ca", "re"], [" sm", "all"], [" ", "?"], ["n", "a"], [" ", "ke"], ["i", "ve"], [" fe", "el"], [" g", "ra"], [" d", "ad"], [" sc", "ared"], [" b", "all"], ["a", "p"], [" The", "n"], ["u", "dd"], ["a", "ve"], [" m", "in"], [" t", "ree"], [" p", "o"], [" m", "y"], ["ar", "n"], [" ab", "out"], ["w", "ays"], [" M", "om"], ["The", "y"], [" c", "at"], [" w", "ill"], [" did", "n't"], [" al", "ways"], [" toy", "s"], [" too", "k"], ["nd", "er"], [" h", "ow"], [" o", "w"], [" kn", "ow"], [" h", "o"], [" H", "ow"], [" mom", "my"], [" th", "ought"], ["i", "a"], [" kn", "e"], ["f", "e"], [" loo", "k"], ["a", "re"], [" l", "ot"], ["on", "'t"], [" o", "ld"], ["is", "e"], [" out", "side"], [" in", "t"], ["in", "k"], [" S", "am"], ["c", "hed"], ["re", "t"], ["en", "ed"], [" le", "arn"], ["m", "a"], ["et", "'s"], ["is", "h"], ["ec", "i"], ["f", "ter"], [" t", "ake"], [" M", "ax"], ["et", "ter"], ["a", "k"], [" la", "ug"], [" ", "0"], ["re", "at"], [" p", "e"], ["u", "ll"], ["g", "ed"], [" t", "w"], [" kne", "w"], ["o", "b"], [" t", "r"], [" s", "or"], ["v", "en"], [" th", "is"], [" wa", "ter"], ["udd", "en"], [" an", "y"], ["eci", "al"], [" sp", "ecial"], [" s", "un"], [" m", "o"], [" sh", "ow"], [" r", "un"], ["b", "er"], [" st", "or"], [" e", "at"], [" ", "R"], [" s", "l"], ["udden", "ly"], ["an", "k"], [" c", "om"], [" e", "ach"], ["im", "al"], [" h", "ouse"], [" an", "imal"], [" min", "us"], ["i", "on"], ["B", "ut"], [" j", "ust"], [" s", "k"], ["u", "se"], [" int", "o"], ["c", "t"], ["ir", "st"], [" to", "ld"], [" co", "l"], [" sor", "ry"], [" ow", "n"], [" o", "p"], [" cl", "o"], [" ha", "nd"], [" play", "ed"], [" ex", "pl"], ["um", "p"], [" ", "en"], [" t", "ried"], [" g", "ave"], ["t", "y"], [" in", "side"], [" pr", "oud"], [" st", "r"], [" tim", "es"], ["a", "use"], [" ne", "ed"], [" ", "if"], [" ", "G"], ["a", "ce"], [" ro", "om"], ["ot", "her"], [" o", "ver"], [" could", "n't"], [" W", "e"], [" ", "qu"], [" ", "P"], [" pl", "us"], [" ne", "ver"], ["f", "t"], ["or", "t"], [" bo", "x"], [" wor", "d"], [" f", "o"], ["d", "y"], [" p", "ick"], [" he", "ard"], ["at", "e"], ["il", "e"], [" hug", "ged"], [" l", "ong"], [" bec", "ause"], [" b", "y"], [" wa", "t"], ["a", "nd"], [" E", "very"], ["he", "re"], ["T", "om"], [" p", "ret"], ["i", "z"], ["'", "m"], [" col", "or"], [" n", "ice"], ["ot", "h"], [" An", "na"], [" be", "ar"], ["M", "om"], [" g", "r"], [" l", "ist"], [" S", "ara"], [" c", "all"], [" W", "h"], [" of", "f"], ["ur", "t"], ["ur", "p"], ["v", "ing"], ["l", "es"], ["it", "al"], [" t", "ry"], ["e", "m"], ["c", "y"], ["s", "el"], ["il", "d"], ["oug", "h"], [" stor", "y"], ["b", "b"], ["g", "ry"], [" learn", "ed"], [" u", "nt"], [" b", "etter"], [" lo", "ve"], [" S", "o"], [" fl", "ow"], [" J", "ack"], ["a", "se"], [" fa", "st"], [" unt", "il"], ["v", "es"], [" b", "u"], ["ck", "s"], ["ar", "s"], [" b", "est"], ["p", "ital"], ["ur", "n"], [" k", "ind"], ["p", "t"], ["ad", "y"], [" s", "n"], [" e", "nd"], [" c", "le"], [" d", "re"], [" ", "im"], ["Y", "es"], [" t", "a"], [" e", "ven"], [" A", "nd"], [" sk", "y"], [" J", "o"], ["T", "h"], [" animal", "s"], [" j", "ump"], [" u", "s"], [" M", "ia"], [" c", "he"], [" H", "er"], [" a", "d"], ["H", "e"], [" b", "ook"], [" care", "ful"], ["in", "y"], ["in", "e"], ["a", "ut"], [" d", "on't"], ["v", "ent"], [" g", "ard"], ["b", "y"], [" gard", "en"], [" f", "i"], [" than", "ked"], [" b", "ra"], [" be", "aut"], [" s", "ay"], [" t", "e"], [" laug", "hed"], ["le", "w"], ["o", "y"], ["sel", "f"], [" c", "u"], [" r", "ed"], ["ab", "le"], [" tw", "o"], [" w", "o"], [" ca", "pital"], [" call", "ed"], [" lot", "s"], ["an", "e"], [" g", "l"], [" st", "ill"], [" l", "oud"], [" h", "urt"], ["i", "ful"], [" beaut", "iful"], ["I", "t"], [" wa", "y"], [" F", "rom"], ["oo", "l"], ["n", "ing"], ["i", "es"], [" u", "nder"], [" h", "ard"], [" ke", "ep"], [" li", "ved"], [" a", "r"], [" c", "ome"], ["b", "e"], ["i", "p"], ["k", "ay"], [" clo", "s"], [" n", "ow"], [" f", "am"], [" H", "is"], ["h", "n"], [" do", "es"], ["T", "im"], ["u", "cy"], [" f", "ly"], ["he", "s"], ["x", "t"], ["Y", "ou"], ["ec", "t"], [" b", "oth"], [" re", "m"], [" sa", "fe"], [" on", "ly"], ["ig", "h"], [" it", "s"], [" f", "lew"], [" bra", "ve"], [" im", "p"], [" b", "ad"], [" st", "ay"], ["op", "le"], ["o", "on"], ["W", "hen"], [" d", "ra"], [" wal", "ked"], [" f", "in"], [" Lily", "'s"], [" bl", "ue"], [" sh", "ould"], [" c", "on"], [" do", "ll"], ["is", "hed"], [" f", "r"], [" cle", "an"], [" p", "ic"], [" f", "ore"], [" fam", "ily"], [" D", "o"], [" t", "ra"], ["l", "ed"], ["g", "e"], [" an", "gry"], ["ag", "e"], ["urp", "r"], [" pe", "ople"], ["dd", "ed"], [" W", "hen"], [" f", "ish"], [" s", "urpr"], ["a", "c"], [" so", "on"], [" y", "ell"], [" w", "ind"], [" ne", "xt"], ["f", "ore"], [" sh", "are"], [" go", "ing"], ["il", "ly"], [" g", "round"], [" sh", "iny"], [" pret", "ty"], [" f", "ar"], [" ke", "pt"], ["ar", "y"], [" F", "irst"], ["is", "ed"], [" st", "o"], ["um", "my"], ["L", "et's"], [" do", "or"], ["e", "et"], ["B", "en"], ["b", "le"], [" g", "re"], ["i", "ed"], [" y", "es"], [" ad", "vent"], [" expl", "ore"], [" no", "ise"], [" e", "y"], [" be", "fore"], [" c", "ry"], [" L", "ucy"], [" op", "ened"], ["t", "hing"], [" it", "'s"], [" k", "it"], ["W", "hat"], [" ", "ide"], ["ro", "g"], [" t", "re"], [" ", "K"], ["f", "f"], [" t", "urn"], [" no", "dded"], [" B", "ob"], [" wh", "ile"], [" tr", "uck"], ["ang", "e"], ["t", "h"], [" g", "reat"], [" w", "r"], [" wa", "r"], [" re", "al"], ["ou", "nt"], [" big", "g"], ["im", "b"], [" feel", "ing"], [" pick", "ed"], [" cl", "imb"], [" a", "pp"], [" b", "ed"], ["T", "hat"], [" str", "ong"], [" n", "um"], [" ide", "a"], ["ll", "ow"], ["s", "o"], ["N", "o"], [" th", "r"], [" bo", "at"], [" u", "n"], [" wal", "k"], [" S", "p"], [" al", "so"], ["t", "ure"], ["ay", "be"], ["Th", "ank"], [" pic", "ture"], ["is", "s"], [" a", "m"], [" th", "ree"], [" smil", "e"], [" own", "s"], [" wal", "king"], [" a", "fter"], [" fo", "llow"], ["d", "ay"], ["ic", "ed"], [" j", "o"], ["t", "ed"], [" wa", "it"], [" m", "a"], ["t", "ing"], ["em", "ber"], [" advent", "ure"], ["j", "oy"], [" t", "al"], ["i", "ous"], [" f", "ood"], [" l", "ess"], [" sto", "pped"], [" b", "ro"], [" ro", "ck"], [" list", "en"], [" as", "k"], [" ey", "es"], ["c", "o"], [" be", "ing"], [" f", "rog"], ["an", "ce"], [" re", "pl"], [" hand", "s"], ["a", "v"], ["ug", "ht"], [" d", "e"], [" S", "ue"], [" wat", "ch"], [" S", "uddenly"], [" g", "ive"], [" rem", "ember"], [" Wh", "o"], [" fore", "st"], [" r", "ain"], [" loo", "king"], ["i", "ch"], [" An", "swer"], [" s", "ound"], [" d", "if"], [" d", "el"], ["by", "e"], [" en", "joy"], [" o", "kay"], [" pl", "ace"], ["ma", "z"], ["le", "ase"], [" d", "is"], [" a", "maz"], [" sl", "ide"], [" e", "ver"], [" yell", "ow"], ["ak", "es"], [" m", "or"], [" C", "an"], [" bl", "o"], [" not", "iced"], ["re", "am"], [" th", "ink"], [" v", "o"], [" I", "'m"], [" flow", "ers"], ["S", "uddenly"], [" a", "c"], ["S", "he"], ["iz", "ed"], ["am", "p"], ["b", "it"], [" A", "dd"], [" A", "s"], [" D", "ad"], [" T", "h"], ["g", "an"], [" wo", "nder"], [" n", "ight"], [" repl", "ied"], [" qu", "ick"], [" show", "ed"], [" y", "e"], [" me", "an"], ["ab", "bit"], [" wor", "k"], [" sh", "out"], [" ne", "ar"], [" to", "w"], [" bec", "ame"], [" r", "ight"], [" bird", "s"], [" he", "re"], [" ", "O"], [" he", "ad"], [" r", "abbit"], ["I", "'m"], [" imp", "ort"], [" ", "our"], ["re", "n"], [" u", "se"], ["ll", "y"], [" every", "one"], ["le", "ep"], [" m", "ag"], [" d", "r"], [" st", "ick"], [" import", "ant"], [" b", "ag"], [" h", "igh"], ["E", "S"], ["W", "e"], [" Y", "ES"], [" w", "here"], ["bb", "ed"], [" gre", "en"], [" br", "ight"], [" wat", "ched"], [" p", "ain"], [" N", "O"], ["u", "ff"], ["A", "n"], [" t", "ell"], [" le", "ft"], [" cu", "ri"], ["L", "ook"], ["S", "o"], [" con", "t"], ["a", "ir"], [" dif", "fe"], [" quick", "ly"], [" gra", "ss"], [" good", "bye"], [" ", "z"], ["il", "a"], [" clos", "er"], [" vo", "ice"], [" be", "en"], [" fa", "ce"], ["as", "s"], [" h", "op"], [" ch", "ild"], ["nd", "ma"], [" curi", "ous"], [" st", "ore"], [" s", "ure"], [" c", "ook"], [" op", "en"], [" dre", "ss"], ["or", "n"], [" p", "u"], [" s", "ing"], [" Sp", "ot"], [" f", "irst"], [" war", "m"], [" h", "at"], [" any", "m"], [" anym", "ore"], [" be", "l"], [" Mom", "my"], [" I", "s"], ["re", "nt"], ["us", "h"], ["H", "er"], [" fa", "v"], ["is", "y"], [" diffe", "rent"], [" for", "g"], [" c", "ake"], ["S", "ara"], [" d", "uck"], ["C", "an"], [" sw", "eet"], ["a", "ched"], [" bigg", "er"], [" Jo", "hn"], [" m", "on"], ["in", "s"], ["at", "er"], [" but", "ter"], ["An", "na"], [" fi", "re"], [" fe", "ll"], ["ir", "ed"], [" m", "ar"], ["pp", "y"], ["k", "es"], [" p", "er"], [" help", "ed"], ["'", "re"], [" le", "a"], [" kit", "c"], [" kitc", "hen"], [" ho", "ld"], ["at", "h"], [" at", "e"], [" t", "all"], [" p", "ull"], ["un", "ny"], ["J", "o"], [" l", "ight"], ["A", "fter"], ["It", "'s"], [" se", "es"], [" nam", "e"], [" b", "it"], [" jump", "ed"], [" sw", "im"], ["d", "er"], [" l", "et"], [" happ", "ened"], [" so", "ft"], ["i", "ke"], [" fl", "o"], [" k", "id"], [" d", "ro"], [" word", "s"], [" g", "i"], [" br", "other"], ["an", "c"], [" J", "ane"], [" be", "h"], [" st", "op"], [" c", "r"], [" p", "ink"], [" gl", "ad"], [" g", "ame"], [" gra", "bbed"], [" s", "qu"], ["u", "it"], [" lo", "st"], [" b", "re"], [" pr", "in"], ["m", "er"], [" sa", "nd"], [" sh", "o"], ["z", "y"], [" re", "st"], ["a", "st"], [" wor", "ld"], [" flow", "er"], [" c", "ut"], [" re", "ached"], [" l", "etter"], [" c", "ra"], [" m", "ess"], [" t", "ri"], [" ha", "ving"], [" thr", "ough"], [" fav", "or"], [" ", "Z"], [" favor", "ite"], [" shout", "ed"], [" y", "ummy"], [" re", "ady"], ["nt", "s"], ["o", "lly"], [" wor", "ry"], [" Every", "one"], [" p", "ap"], ["a", "isy"], [" l", "ady"], [" mag", "ic"], [" real", "ized"], ["u", "d"], ["ull", "y"], ["i", "k"], ["W", "ow"], [" po", "nd"], ["i", "ent"], [" d", "one"], ["ard", "s"], ["at", "her"], ["A", "s"], [" be", "gan"], [" re", "ally"], ["im", "es"], [" fun", "ny"], [" t", "ired"], [" th", "ing"], ["w", "here"], [" dra", "w"], [" cat", "ch"], [" blo", "cks"], ["en", "s"], ["er", "ed"], ["Mom", "my"], [" c", "ried"], [" com", "p"], [" E", "m"], [" wa", "ved"], ["at", "ion"], [" p", "are"], [" b", "unny"], ["k", "en"], ["ed", "dy"], ["f", "ully"], [" se", "en"], [" butter", "f"], [" look", "s"], [" ta", "st"], ["st", "er"], [" him", "self"], [" L", "et's"], [" m", "um"], ["ig", "n"], [" under", "st"], [" p", "art"], ["i", "ver"], [" d", "in"], [" f", "ill"], [" ha", "ir"], [" can", "'t"], [" re", "ad"], ["D", "on't"], [" an", "other"], ["in", "ed"], [" s", "leep"], [" Sara", "h"], [" book", "s"], [" kid", "s"], [" com", "ing"], [" tre", "es"], [" co", "ld"], [" per", "f"], [" A", "ll"], [" sl", "ow"], [" c", "ool"], [" st", "e"], [" fi", "x"], [" p", "rom"], [" ma", "king"], ["one", "y"], ["ow", "s"], [" pret", "end"], [" cont", "in"], [" wh", "ite"], [" us", "ed"], [" m", "ouse"], ["b", "o"], [" sw", "ing"], ["Tim", "my"], [" ho", "le"], [" than", "k"], [" T", "hat"], [" Jo", "e"], ["el", "y"], [" The", "re"], [" I", "n"], [" e", "l"], [" N", "o"], [" se", "ed"], [" wh", "y"], [" to", "uch"], [" surpr", "ise"], [" run", "ning"], [" A", "fter"], [" d", "ark"], [" pare", "nts"], [" wor", "ked"], ["u", "ed"], [" num", "ber"], ["ck", "ed"], [" pap", "er"], [" s", "at"], [" sm", "ell"], [" beh", "ind"], [" s", "et"], [" ho", "pped"], [" happ", "ily"], [" c", "reat"], [" del", "ic"], [" do", "ing"], [" l", "et's"], [" w", "ood"], [" remember", "ed"], [" It", "'s"], [" f", "ull"], [" ", "V"], ["re", "l"], [" pl", "an"], [" d", "ri"], [" li", "on"], [" Timmy", "'s"], [" dre", "am"], [" sn", "ow"], ["H", "ell"], ["Hell", "o"], [" w", "ished"], [" J", "en"], [" the", "se"], [" flo", "or"], ["g", "s"], [" to", "p"], [" Ben", "ny"], ["W", "h"], ["g", "on"], [" p", "re"], [" S", "t"], [" cl", "oud"], [" care", "fully"], [" we", "ar"], [" laug", "h"], ["Jo", "hn"], [" need", "ed"], [" enjoy", "ed"], [" bu", "y"], [" ye", "ars"], ["s", "h"], [" ", "ve"], [" ", "ice"], [" less", "on"], [" mo", "ve"], [" butterf", "ly"], [" he", "ld"], [" h", "ill"], [" b", "ow"], [" sp", "ot"], [" bu", "ild"], [" pl", "ant"], ["ang", "er"], ["p", "h"], [" car", "s"], [" her", "self"], [" p", "lease"], ["ar", "l"], ["o", "s"], [" ca", "nd"], [" seed", "s"], ["S", "am"], [" s", "u"], [" ca", "st"], [" any", "thing"], ["r", "ot"], [" bl", "ack"], ["ke", "y"], [" a", "ir"], ["c", "ess"], [" li", "kes"], ["ab", "y"], [" h", "un"], [" ar", "ri"], [" he", "ar"], [" follow", "ed"], ["l", "f"], [" fin", "ished"], [" b", "ug"], [" h", "id"], [" fa", "ir"], ["as", "ure"], [" wr", "ong"], [" friend", "ly"], ["ll", "s"], ["uff", "y"], [" el", "se"], ["re", "ed"], ["n", "er"], ["m", "an"], [" br", "own"], ["in", "ally"], [" tal", "k"], ["a", "ught"], [" surpr", "ised"], [" p", "et"], [" child", "ren"], ["'", "ll"], [" d", "ir"], [" D", "aisy"], [" h", "ot"], ["That", "'s"], ["i", "x"], [" color", "s"], [" b", "us"], [" mor", "ning"], [" or", "ange"], [" g", "ent"], [" S", "ally"], [" arri", "ved"], [" t", "ight"], [" f", "all"], [" ar", "m"], [" wonder", "ful"], ["e", "y"], ["ow", "er"], [" re", "l"], [" wind", "ow"], [" s", "ong"], [" clo", "se"], ["a", "'s"], ["ro", "ss"], ["ie", "ld"], ["b", "ers"], [" b", "ike"], [" t", "able"], [" delic", "ious"], [" cu", "p"], [" some", "one"], [" contin", "ued"], [" m", "us"], [" m", "et"], [" underst", "and"], ["as", "k"], [" N", "ow"], [" g", "one"], ["F", "rom"], [" m", "ight"], [" L", "ila"], [" p", "urp"], [" he", "av"], ["ro", "om"], [" fill", "ed"], [" re", "s"], [" din", "ner"], ["as", "h"], ["r", "ow"], [" forg", "ot"], [" sa", "il"], [" ab", "le"], ["ic", "y"], [" purp", "le"], [" m", "at"], ["The", "n"], ["ct", "or"], [" cast", "le"], ["ou", "p"], [" m", "akes"], [" lea", "ves"], [" p", "at"], ["J", "ack"], [" d", "anc"], ["o", "l"], [" v", "is"], [" a", "dd"], [" c", "ount"], [" mom", "ent"], [" po", "in"], [" gra", "ndma"], [" ball", "oon"], [" sc", "ary"], [" ag", "reed"], [" ta", "il"], [" bro", "ken"], [" want", "s"], ["Th", "is"], [" pu", "ppy"], ["en", "ce"], [" other", "s"], [" w", "et"], [" en", "ough"], [" k", "ite"], ["r", "ed"], [" amaz", "ing"], ["n", "ot"], [" get", "ting"], [" can", "not"], [" picture", "s"], [" m", "other"], ["i", "re"], [" bre", "ak"], [" B", "illy"], ["q", "ue"], [" gr", "ow"], [" m", "ust"], [" try", "ing"], [" fast", "er"], [" num", "bers"], [" r", "u"], ["ri", "es"], [" hun", "gry"], [" cook", "ies"], [" fin", "ally"], [" fe", "wer"], [" tra", "in"], [" Th", "is"], [" small", "er"], [" mus", "ic"], [" b", "aby"], [" d", "ance"], [" br", "ought"], [" p", "i"], ["on", "s"], ["A", "t"], ["H", "is"], [" squ", "ir"], [" climb", "ed"], [" M", "aybe"], [" G", "ra"], [" fe", "w"], [" turn", "ed"], [" list", "ened"], [" fr", "uit"], [" perf", "ect"], ["e", "ver"], [" cl", "ot"], ["o", "e"], [" smil", "es"], ["z", "z"], [" d", "es"], ["or", "ing"], [" Wh", "ich"], [" clot", "hes"], ["a", "pp"], [" somet", "imes"], [" d", "anger"], [" squir", "rel"], [" stay", "ed"], [" ask", "s"], [" be", "ach"], [" ow", "l"], [" dad", "dy"], ["is", "ter"], [" p", "us"], ["am", "a"], ["ot", "t"], [" F", "l"], ["p", "e"], [" every", "thing"], [" wa", "ited"], ["out", "h"], [" po", "l"], [" dra", "gon"], [" p", "en"], ["i", "et"], [" t", "eddy"], [" m", "iss"], [" j", "ob"], ["el", "c"], ["M", "aybe"], [" de", "ep"], [" was", "n't"], [" to", "wer"], ["ad", "s"], [" sp", "l"], ["uck", "y"], ["i", "er"], [" st", "amp"], ["in", "a"], [" str", "ange"], [" l", "ake"], [" vis", "it"], [" se", "ar"], ["O", "h"], [" amaz", "ed"], [" la", "nd"], [" al", "one"], ["a", "w"], [" f", "ight"], [" h", "ide"], ["re", "w"], [" r", "ide"], [" s", "illy"], [" K", "im"], ["z", "e"], [" wood", "s"], ["at", "ed"], [" w", "ings"], [" sp", "ark"], [" fly", "ing"], [" s", "it"], [" G", "ive"], [" c", "ream"], [" ro", "ll"], [" expl", "ain"], [" fo", "x"], [" tow", "ards"], ["et", "er"], ["a", "h"], ["am", "es"], [" j", "oy"], [" pull", "ed"], [" mor", "al"], [" own", "er"], [" b", "ott"], ["th", "y"], [" r", "a"], [" r", "iver"], [" s", "ister"], [" prom", "ised"], [" do", "ctor"], ["or", "m"], ["ll", "o"], ["a", "pped"], [" p", "ro"], [" part", "y"], ["M", "ax"], [" j", "u"], ["ug", "g"], [" g", "u"], ["ck", "et"], [" ", "U"], [" w", "in"], ["a", "j"], ["ig", "g"], ["n", "g"], [" A", "my"], [" tre", "asure"], [" to", "day"], [" g", "if"], ["it", "y"], [" le", "ave"], [" f", "ur"], ["c", "le"], [" cand", "y"], [" sh", "ar"], [" Tom", "my"], [" see", "m"], [" li", "ving"], [" car", "rot"], [" sh", "ared"], [" w", "elc"], ["e", "e"], [" mon", "key"], [" s", "ide"], ["e", "ar"], ["is", "es"], [" f", "ield"], [" far", "mer"], ["un", "ch"], [" e", "le"], ["l", "ing"], [" t", "reat"], [" doll", "s"], [" prin", "cess"], [" m", "ix"], [" sp", "o"], [" m", "outh"], [" gr", "ate"], [" wor", "ried"], ["O", "kay"], ["ss", "ed"], ["ec", "es"], [" sh", "ap"], [" C", "arl"], [" St", "art"], [" jo", "in"], [" bl", "ank"], [" grate", "ful"], [" help", "ing"], [" e", "m"], [" pi", "eces"], [" magic", "al"], ["i", "pp"], [" run", "s"], [" she", "lls"], [" pain", "t"], [" think", "s"], [" Z", "oe"], [" slow", "ly"], [" p", "ot"], [" be", "ads"], [" with", "out"], [" at", "t"], [" blank", "et"], [" bel", "ie"], [" every", "where"], [" ch", "air"], [" gr", "ay"], [" M", "olly"], ["s", "et"], [" cry", "ing"], [" wa", "ll"], [" or", "der"], ["im", "my"], [" s", "ign"], ["ch", "ool"], [" sm", "art"], ["ct", "ly"], [" li", "ve"], ["us", "ed"], [" m", "oney"], [" sh", "op"], [" T", "o"], ["f", "ort"], [" n", "ap"], [" r", "ing"], ["or", "row"], [" p", "ig"], [" R", "aj"], [" danger", "ous"], ["u", "ally"], [" re", "ach"], [" s", "chool"], [" sp", "oon"], [" mo", "st"], [" ste", "pped"], [" qu", "iet"], ["ik", "o"], ["o", "om"], [" st", "ep"], [" co", "at"], ["H", "i"], [" ch", "o"], [" heav", "y"], [" bow", "l"], ["ion", "s"], [" p", "ie"], [" J", "ill"], [" get", "s"], [" Th", "ank"], [" gi", "ves"], ["ir", "a"], [" stamp", "s"], ["Wh", "y"], ["S", "ure"], [" color", "ful"], [" dir", "ty"], [" Fl", "uffy"], [" k", "iss"], [" dr", "ink"], ["O", "K"], [" kit", "es"], [" be", "e"], ["i", "pped"], ["m", "e"], ["b", "les"], [" s", "uch"], [" p", "ass"], ["u", "p"], [" se", "c"], ["as", "ed"], [" ac", "c"], [" sn", "ack"], ["m", "ar"], ["a", "le"], ["av", "i"], [" l", "ar"], [" O", "mar"], [" clos", "ed"], [" go", "ld"], ["e", "k"], [" ac", "ross"], [" b", "ar"], [" No", "ah"], [" he", "al"], [" he", "art"], [" ro", "cks"], [" bro", "ke"], [" dis", "app"], [" b", "ri"], ["id", "ent"], [" to", "m"], [" sc", "ream"], [" tow", "n"], ["w", "eet"], [" r", "ace"], [" t", "iny"], [" c", "orn"], [" h", "ig"], [" tw", "ins"], [" ye", "ar"], ["m", "ing"], [" b", "ath"], [" f", "ree"], [" mar", "bles"], [" st", "uck"], [" b", "uck"], [" te", "ac"], [" sa", "me"], ["ask", "et"], ["el", "s"], [" eat", "ing"], ["v", "a"], ["l", "ess"], ["m", "ent"], ["un", "g"], [" th", "rew"], [" go", "es"], [" j", "e"], [" c", "ow"], [" l", "on"], [" c", "our"], ["it", "ing"], [" Y", "u"], [" Yu", "k"], [" Yuk", "i"], ["ra", "ct"], [" hop", "ed"], [" ", "On"], [" b", "asket"], ["or", "ed"], [" qu", "est"], [" cr", "ay"], [" we", "ll"], [" you", "ng"], ["e", "ared"], [" R", "avi"], [" R", "ep"], [" y", "ard"], [" dr", "um"], [" welc", "ome"], [" sec", "ret"], [" lon", "ely"], [" sp", "r"], [" T", "ara"], [" but", "t"], [" cour", "se"], [" day", "s"], ["p", "er"], [" sho", "es"], [" ne", "igh"], ["o", "g"], ["n", "ey"], [" belie", "ve"], [" gent", "le"], [" neigh", "b"], [" s", "ang"], [" st", "and"], [" hig", "her"], [" h", "or"], ["e", "re"], [" com", "es"], ["b", "s"], ["M", "ia"], ["ph", "ant"], [" cl", "apped"], [" ve", "get"], [" teac", "her"], [" mon", "ster"], [" letter", "s"], ["b", "r"], [" g", "ames"], [" b", "ite"], [" w", "he"], [" gif", "t"], [" s", "oup"], ["er", "a"], [" feel", "s"], [" pus", "hed"], [" b", "en"], [" p", "ack"], ["o", "es"], [" che", "ered"], ["il", "s"], ["ount", "ain"], [" up", "set"], [" ele", "phant"], [" po", "cket"], [" would", "n't"], [" st", "ar"], [" acc", "ident"], [" app", "le"], [" sw", "ings"], [" h", "it"], [" br", "ing"], [" M", "r"], ["ve", "l"], [" V", "ik"], [" fair", "y"], [" e", "g"], ["y", "an"], [" Em", "ma"], [" sm", "o"], ["or", "d"], ["id", "ge"], [" co", "ll"], ["ce", "an"], [" long", "er"], [" rain", "b"], [" no", "ises"], [" se", "a"], [" j", "our"], [" explain", "ed"], ["F", "inally"], ["e", "ad"], ["l", "and"], [" b", "and"], [" too", "l"], [" d", "ry"], ["vent", "ually"], [" in", "st"], ["i", "ble"], [" dro", "pped"], [" dro", "ve"], [" l", "unch"], [" A", "iko"], [" adventure", "s"], [" bigg", "est"], ["L", "ila"], ["p", "ect"], [" b", "ark"], [" happ", "en"], [" ca", "ught"], [" b", "ought"], [" p", "ers"], ["on", "y"], [" ne", "ck"], ["y", "ard"], [" m", "il"], ["ul", "t"], [" sp", "id"], [" Dad", "dy"], [" pl", "ac"], [" p", "ar"], [" plan", "et"], ["ou", "n"], [" expl", "oring"], [" mo", "ved"], [" back", "yard"], [" hug", "s"], [" sw", "am"], [" al", "ong"], ["an", "a"], [" G", "yan"], ["f", "used"], [" ju", "ice"], ["al", "m"], [" comp", "ared"], [" seem", "ed"], [" for", "get"], ["es", "e"], ["You", "'re"], [" s", "uddenly"], ["B", "ob"], [" p", "ast"], [" k", "ing"], [" w", "ise"], [" br", "an"], [" bran", "ch"], ["itt", "en"], [" no", "se"], ["our", "s"], ["itt", "ing"], [" c", "ou"], [" turn", "s"], [" n", "aught"], [" w", "ish"], [" o", "cean"], [" go", "at"], [" sing", "ing"], ["itt", "ens"], [" P", "ut"], [" T", "weet"], [" buck", "et"], ["itt", "y"], ["u", "nt"], [" rainb", "ow"], [" naught", "y"], [" far", "m"], [" wo", "ke"], [" min", "e"], [" ", "es"], [" bel", "ong"], [" p", "h"], [" st", "ars"], [" l", "ate"], [" ben", "ch"], [" mil", "k"], [" d", "ist"], [" app", "les"], [" near", "by"], [" tr", "ou"], [" T", "ake"], [" l", "amp"], ["s", "y"], [" ro", "b"], ["lp", "h"], [" plant", "s"], [" f", "ence"], [" sh", "ook"], [" no", "d"], [" ca", "ve"], [" le", "gs"], [" I", "'ll"], [" ke", "y"], [" Gra", "ndma"], [" s", "ick"], [" so", "ck"], [" N", "ina"], [" pre", "s"], [" ta", "king"], [" th", "ough"], ["co", "l"], [" a", "f"], [" m", "ark"], [" ex", "a"], [" bus", "y"], [" exa", "ctly"], [" rel", "ie"], [" bott", "le"], [" sound", "s"], [" b", "at"], [" M", "ary"], [" he", "llo"], [" T", "ell"], [" Rep", "ly"], [" p", "ower"], [" C", "ome"], ["Lily", "'s"], [" M", "ira"], ["D", "o"], [" laug", "hing"], ["L", "ater"], [" car", "ry"], [" n", "est"], [" kn", "o"], [" stor", "ies"], [" arm", "s"], ["or", "s"], ["ver", "ed"], [" t", "akes"], [" dri", "ver"], [" small", "est"], [" l", "ay"], [" danc", "ed"], [" pie", "ce"], [" wonder", "ed"], [" ma", "il"], [" hor", "se"], [" pat", "ient"], [" in", "v"], ["b", "all"], [" p", "ill"], ["aught", "er"], [" pres", "ent"], ["p", "s"], [" wh", "ist"], [" r", "ound"], ["w", "ard"], [" sun", "ny"], ["oo", "se"], ["p", "ed"], [" m", "ist"], ["o", "se"], [" cloud", "s"], ["O", "f"], [" cut", "e"], [" e", "ag"], ["ra", "id"], [" thr", "ow"], [" l", "ater"], [" c", "ard"], [" to", "u"], [" af", "raid"], [" b", "reat"], [" j", "ar"], [" C", "h"], [" c", "ir"], [" m", "ad"], [" R", "e"], [" E", "va"], [" In", "side"], [" me", "et"], ["pp", "ing"], [" w", "ra"], ["in", "ing"], [" g", "igg"], ["sh", "ine"], [" h", "oney"], [" z", "oo"], [" s", "itting"], [" e", "as"], [" exc", "iting"], [" t", "un"], ["g", "ged"], [" sun", "shine"], [" b", "oun"], ["h", "a"], [" li", "ft"], ["st", "ing"], [" hold", "s"], [" Do", "es"], [" that", "'s"], [" cra", "w"], [" not", "hing"], ["l", "a"], [" d", "aughter"], [" f", "an"], [" watch", "ing"], ["t", "o"], [" shap", "es"], [" stor", "m"], [" C", "ount"], [" snow", "man"], [" spid", "er"], [" relie", "ved"], ["c", "es"], [" co", "zy"], ["u", "b"], [" rock", "et"], [" tou", "ched"], [" wh", "ich"], [" st", "one"], [" man", "g"], [" F", "inally"], [" dis", "co"], [" w", "on't"], [" che", "ese"], [" rob", "ot"], [" int", "ere"], ["ung", "le"], [" accident", "ally"], ["iz", "e"], [" li", "fe"], [" f", "it"], [" l", "ad"], [" pu", "zz"], [" st", "re"], ["bo", "ard"], ["c", "ase"], [" j", "ungle"], [" le", "m"], ["ir", "t"], ["A", "nd"], [" com", "fort"], ["et", "h"], [" p", "udd"], [" jour", "ney"], ["th", "day"], [" inst", "ead"], [" pe", "ace"], [" hug", "e"], [" creat", "ure"], [" hold", "ing"], [" stre", "et"], ["t", "en"], [" M", "ama"], [" v", "ill"], [" or", "gan"], [" swim", "ming"], [" p", "ath"], ["n", "ess"], ["u", "bb"], [" im", "ag"], [" gra", "nd"], ["pp", "er"], ["ad", "ow"], [" in", "c"], [" fore", "ver"], ["o", "ve"], [" o", "ven"], [" min", "ut"], [" so", "l"], [" des", "k"], [" So", "on"], [" J", "immy"], ["a", "ur"], [" c", "e"], ["He", "y"], ["G", "ood"], [" b", "ush"], ["L", "ucy"], ["it", "ch"], [" shar", "p"], ["ep", "end"], ["ap", "e"], [" strong", "er"], [" l", "ucky"], [" k", "ick"], [" c", "ity"], [" la", "st"], ["o", "st"], [" smil", "ing"], ["re", "ad"], [" re", "t"], [" a", "ct"], [" bir", "thday"], [" tal", "ked"], [" f", "ing"], [" sp", "in"], [" keep", "s"], [" poin", "ted"], [" any", "one"], [" wr", "ite"], [" n", "ut"], [" Sam", "my"], [" heal", "thy"], [" tom", "orrow"], [" smell", "ed"], [" hop", "e"], [" fe", "ather"], ["ble", "m"], [" pro", "blem"], ["b", "led"], [" mo", "d"], [" bre", "ad"], [" sear", "ched"], [" ret", "urn"], [" pl", "ane"], [" tast", "y"], [" p", "ract"], [" cray", "ons"], ["g", "y"], ["er", "t"], [" c", "alm"], ["f", "ish"], [" bri", "cks"], ["ll", "a"], [" prom", "ise"], [" on", "to"], [" he", "l"], [" mo", "on"], ["n", "ed"], [" M", "ittens"], [" k", "itten"], [" kne", "e"], [" I", "f"], [" sand", "w"], ["is", "a"], [" G", "o"], ["op", "e"], [" intere", "sting"], [" fo", "ot"], [" s", "ur"], ["id", "es"], [" z", "oom"], [" S", "omet"], ["C", "ome"], [" res", "pect"], ["on", "t"], [" l", "ang"], [" lang", "u"], [" a", "p"], [" sa", "l"], [" w", "ide"], [" sa", "ck"], [" ad", "m"], [" roll", "ed"], ["am", "ed"], [" wo", "lf"], [" in", "se"], ["s", "es"], [" butt", "on"], [" te", "ach"], [" m", "ountain"], [" fr", "ont"], [" who", "le"], ["et", "e"], [" lo", "ves"], [" su", "c"], [" w", "ild"], [" wa", "ve"], ["t", "s"], [" ", "ent"], [" pers", "on"], [" lem", "on"], [" co", "in"], [" g", "ather"], [" lad", "der"], [" ro", "pe"], [" my", "ster"], [" d", "i"], [" cou", "ch"], [" inse", "ct"], [" tast", "ed"], [" gent", "ly"], ["e", "b"], ["a", "king"], [" as", "leep"], [" put", "s"], [" o", "b"], [" B", "e"], [" love", "ly"], [" plac", "es"], [" sa", "f"], [" re", "c"], [" Jen", "ny"], [" P", "lease"], [" ro", "ad"], [" mom", "'s"], ["ch", "ing"], [" coll", "ect"], ["ud", "e"], ["I", "n"], [" help", "ful"], [" em", "b"], [" p", "ile"], [" che", "er"], [" langu", "age"], [" m", "ach"], [" imp", "re"], [" build", "ing"], [" ch", "ick"], [" M", "on"], [" old", "er"], [" tal", "king"], [" p", "ush"], [" st", "at"], [" as", "h"], [" sh", "r"], ["or", "y"], [" pr", "ot"], ["r", "ite"], [" sh", "ining"], [" sp", "ent"], [" fe", "et"], [" con", "fused"], [" p", "ony"], [" wait", "ing"], [" th", "in"], ["ur", "se"], [" quest", "ions"], ["p", "a"], [" scream", "ed"], ["if", "e"], [" gi", "ant"], ["on", "es"], [" spot", "ted"], [" duck", "s"], [" wear", "ing"], ["ar", "ra"], [" prot", "ect"], ["Tom", "my"], [" emb", "arra"], ["J", "ust"], [" Y", "es"], [" b", "al"], [" w", "om"], ["ab", "les"], [" A", "l"], [" W", "rite"], [" wom", "an"], ["ir", "d"], [" corn", "er"], [" sp", "icy"], [" s", "er"], [" te", "a"], ["iz", "z"], [" trou", "ble"], [" neighb", "or"], [" eg", "gs"], [" That", "'s"], [" pretend", "ed"], ["ow", "ed"], ["E", "very"], [" vill", "age"], [" h", "on"], [" p", "op"], [" del", "ight"], [" wor", "m"], [" fin", "ish"], ["What", "'s"], [" mat", "ter"], ["M", "olly"], [" su", "pp"], [" she", "ep"], [" forg", "ive"], [" K", "itty"], [" tr", "ue"], [" fa", "ces"], [" st", "ir"], [" com", "pl"], [" fur", "ry"], [" col", "our"], [" spl", "as"], [" Tom", "'s"], [" bag", "s"], [" c", "art"], ["ig", "er"], [" mang", "oes"], ["ul", "ar"], [" m", "ud"], ["le", "x"], [" app", "eared"], [" sc", "ar"], [" v", "ase"], [" sh", "irt"], [" ph", "one"], ["oo", "king"], [" when", "ever"], ["er", "ry"], ["c", "hes"], [" p", "ool"], ["ust", "r"], [" tr", "ust"], [" cho", "col"], [" dog", "s"], [" sn", "ake"], [" bu", "bb"], ["S", "t"], [" t", "est"], [" n", "et"], [" song", "s"], [" he", "n"], [" W", "ren"], [" pudd", "le"], [" cle", "ver"], [" se", "at"], [" cook", "ie"], [" ", "que"], [" fl", "ut"], [" e", "ventually"], [" b", "lew"], [" cl", "oth"], [" sh", "y"], [" W", "ith"], ["as", "er"], [" tast", "e"], [" dir", "t"], [" dri", "ve"], ["c", "er"], [" Somet", "imes"], [" p", "our"], [" veget", "ables"], [" minut", "es"], [" a", "nt"], ["N", "ow"], [" ex", "am"], [" g", "un"], [" was", "h"], [" ", "ign"], [" embarra", "ssed"], [" te", "eth"], [" S", "ome"], [" chocol", "ate"], [" G", "ood"], [" we", "ak"], ["le", "br"], [" bug", "s"], [" you", "'re"], [" lar", "ge"], [" ce", "lebr"], [" fix", "ed"], [" smo", "oth"], ["and", "y"], [" Tim", "'s"], [" ha", "m"], [" Wh", "y"], [" m", "ind"], ["M", "um"], [" h", "ours"], ["air", "s"], [" b", "an"], ["M", "y"], ["al", "s"], [" rem", "ind"], ["g", "ly"], ["S", "oon"], [" follow", "s"], [" que", "en"], [" e", "ar"], [" hid", "ing"], [" A", "t"], ["im", "e"], [" h", "um"], [" w", "ip"], ["n", "ic"], ["at", "es"], [" puzz", "le"], [" u", "gly"], [" pic", "nic"], ["o", "ld"], [" fruit", "s"], [" ", "'"], [" de", "er"], [" tight", "ly"], [" neck", "l"], ["l", "et"], ["ar", "m"], [" m", "ot"], [" find", "s"], [" p", "aw"], [" stick", "s"], [" sp", "e"], [" st", "ret"], [" see", "k"], ["a", "id"], [" tall", "er"], [" On", "ly"], [" tri", "p"], [" st", "ood"], [" tri", "es"], ["v", "ous"], [" r", "ude"], [" gre", "w"], [" g", "as"], ["art", "h"], [" m", "ed"], ["ig", "hed"], ["g", "round"], [" br", "idge"], [" mach", "ine"], ["a", "il"], [" fan", "cy"], [" v", "al"], [" J", "ust"], [" p", "in"], ["un", "k"], [" carrot", "s"], [" Em", "ily"], [" What", "'s"], [" gr", "oup"], [" for", "ward"], [" T", "V"], ["am", "b"], [" The", "ir"], [" S", "ort"], [" P", "ia"], [" sa", "ve"], [" p", "le"], [" L", "isa"], [" bar", "ked"], [" eag", "er"], [" whist", "le"], [" he", "ars"], [" spark", "ly"], [" fo", "ld"], [" so", "cks"], [" spl", "ash"], [" kno", "cked"], [" n", "er"], [" m", "aybe"], [" neckl", "ace"], ["o", "nd"], [" car", "ried"], [" sw", "an"], [" w", "ore"], ["an", "o"], [" L", "en"], [" r", "ac"], [" dre", "w"], [" me", "ant"], [" jump", "ing"], [" she", "lf"], [" creat", "ive"], ["um", "ber"], [" spr", "ay"], [" ner", "vous"], [" s", "il"], ["l", "o"], [" fight", "ing"], [" par", "rot"], [" sleep", "y"], ["bo", "x"], ["d", "en"], [" g", "en"], [" power", "ful"], [" sh", "ip"], [" Sam", "i"], ["y", "ing"], [" L", "e"], [" c", "ross"], [" show", "s"], ["ell", "y"], [" B", "el"], [" Z", "ane"], [" le", "g"], [" s", "our"], [" jo", "g"], [" treat", "s"], [" myster", "ious"], [" str", "ing"], ["o", "in"], [" sp", "read"], [" ro", "ar"], [" lar", "g"], [" fl", "ag"], [" be", "ll"], [" p", "ri"], ["ro", "ph"], ["d", "le"], [" s", "el"], [" we", "ek"], [" hid", "den"], [" tell", "s"], ["ump", "y"], [" blo", "ck"], [" b", "urn"], [" Mon", "a"], [" em", "p"], ["iz", "zy"], [" st", "ra"], [" yell", "ed"], [" wh", "is"], ["y", "m"], [" disapp", "oin"], [" F", "r"], ["l", "ight"], [" land", "ed"], [" mot", "or"], [" kn", "ight"], [" I", "r"], [" emp", "ty"], [" t", "id"], [" breat", "h"], [" a", "lph"], [" alph", "ab"], [" alphab", "et"], [" stat", "ue"], ["u", "al"], [" gra", "b"], [" ex", "p"], [" dec", "or"], [" larg", "est"], [" pol", "ite"], ["f", "fe"], [" p", "izz"], [" Bob", "o"], [" l", "amb"], [" ch", "ased"], [" miss", "ed"], [" m", "ir"], [" You", "'re"], ["im", "p"], [" of", "ten"], ["i", "an"], [" f", "our"], [" pill", "ow"], [" ca", "ge"], [" shar", "ing"], [" peace", "ful"], ["ot", "e"], [" To", "gether"], [" cle", "ar"], [" ash", "amed"], [" che", "st"], ["eter", "m"], [" re", "g"], ["it", "ive"], ["ll", "ie"], [" An", "n"], [" B", "r"], [" ho", "s"], [" hos", "pital"], [" h", "unt"], ["c", "ed"], [" snack", "s"], [" d", "eterm"], [" g", "ar"], [" y", "arn"], [" stand", "ing"], [" sel", "fish"], [" as", "king"], ["f", "l"], ["r", "or"], ["at", "ure"], [" scar", "f"], ["itt", "er"], [" fr", "ustr"], ["y", "e"], [" D", "e"], [" U", "ma"], [" Every", "where"], ["us", "ie"], [" c", "ries"], [" wr", "ote"], [" ro", "d"], [" eas", "y"], [" f", "ig"], [" gen", "er"], [" disappoin", "ted"], ["oo", "f"], [" cir", "c"], [" spo", "ken"], [" nod", "s"], [" be", "es"], [" know", "ing"], [" gigg", "led"], ["The", "re"], [" s", "que"], [" John", "ny"], [" che", "w"], [" je", "w"], ["u", "dy"], [" lea", "f"], [" bec", "ome"], [" p", "ir"], [" sc", "r"], [" M", "um"], [" ham", "mer"], [" mir", "ror"], [" t", "em"], ["M", "ama"], [" che", "ck"], ["iss", "ors"], ["ob", "y"], ["B", "e"], ["P", "lease"], [" fe", "ed"], ["J", "ane"], [" frustr", "ated"], [" an", "g"], ["il", "t"], ["m", "b"], [" J", "ake"], [" fe", "ar"], [" car", "p"], [" danc", "ing"], ["er", "y"], ["St", "op"], [" wa", "gon"], [" sc", "issors"], [" bo", "ard"], [" pr", "ay"], [" Em", "il"], [" is", "land"], [" bath", "room"], [" mod", "el"], ["ell", "a"], [" not", "es"], [" l", "ine"], [" me", "adow"], [" pain", "ted"], ["m", "ost"], [" pizz", "a"], ["k", "in"], ["os", "aur"], [" P", "eter"], [" sa", "ved"], [" jo", "ke"], [" pol", "ice"], ["W", "here"], [" r", "ad"], ["ce", "pt"], ["ill", "i"], [" squ", "are"], [" spo", "il"], [" Y", "ara"], [" gar", "age"], [" mag", "n"], [" c", "ri"], ["at", "or"], [" E", "ven"], ["ow", "ing"], [" suc", "cess"], [" A", "re"], [" gener", "ous"], [" b", "ored"], [" hon", "est"], [" sweet", "ie"], [" al", "most"], ["or", "ry"], [" C", "hen"], [" h", "ur"], [" comfort", "able"], [" ta", "ught"], ["g", "ing"], ["ens", "ive"], [" Ben", "'s"], [" F", "um"], [" Fum", "i"], [" play", "ground"], [" exp", "ensive"], ["p", "ack"], [" fing", "er"], [" T", "eddy"], [" cl", "own"], ["v", "i"], [" sh", "ore"], ["A", "re"], [" D", "on't"], ["'", "d"], ["t", "i"], [" answer", "ed"], [" underst", "ood"], [" O", "K"], ["D", "ad"], [" mean", "s"], [" j", "elly"], [" ru", "ined"], [" st", "uff"], [" exc", "ite"], [" f", "il"], [" te", "ars"], ["at", "o"], ["p", "ill"], [" sail", "ed"], [" sandw", "ich"], ["p", "eci"], ["peci", "ally"], ["Sara", "h"], [" ro", "se"], [" your", "self"], [" pass", "ed"], [" pl", "ate"], [" tid", "y"], [" es", "pecially"], [" me", "asure"], [" p", "an"], [" se", "al"], [" B", "l"], [" la", "w"], [" c", "ows"], [" De", "vi"], [" cl", "ap"], [" mat", "ch"], [" h", "ang"], ["ant", "s"], ["i", "v"], [" t", "ick"], ["S", "ue"], [" mess", "y"], [" din", "osaur"], [" excite", "ment"], ["ot", "s"], [" ho", "pping"], [" wa", "gged"], [" cat", "er"], [" cater", "pill"], [" kiss", "ed"], [" magn", "et"], [" whe", "el"], [" pen", "c"], ["id", "dle"], [" wa", "ves"], [" heav", "ier"], ["w", "ards"], ["f", "i"], ["T", "o"], [" clos", "et"], ["ak", "en"], [" b", "a"], [" M", "y"], [" do", "ve"], [" cra", "b"], [" ey", "e"], ["ill", "ed"], [" determ", "ined"], ["if", "f"], [" ple", "ased"], [" br", "ush"], [" d", "est"], [" t", "ag"], [" w", "on"], [" co", "ver"], [" ", "ind"], [" mist", "ake"], [" d", "ire"], [" lo", "ck"], [" Ir", "is"], [" bo", "dy"], [" sp", "end"], ["re", "en"], [" t", "aken"], [" return", "ed"], [" po", "or"], [" f", "ine"], [" f", "ake"], [" w", "is"], ["udd", "y"], [" gr", "umpy"], [" draw", "ing"], ["J", "immy"], [" o", "k"], [" b", "one"], [" s", "uit"], [" T", "oby"], [" fl", "uffy"], [" tw", "irl"], [" l", "it"], [" m", "ic"], [" K", "o"], [" Ko", "fi"], [" gather", "ed"], [" mo", "ving"], [" bal", "ance"], [" p", "il"], [" tool", "s"], [" s", "ug"], [" V", "era"], [" hurt", "s"], [" es", "c"], [" b", "orrow"], [" t", "iger"], ["sel", "ves"], [" m", "iddle"], ["J", "ill"], [" pack", "ed"], [" g", "ate"], [" wa", "nder"], [" b", "oring"], [" wor", "king"], ["i", "bb"], [" fr", "idge"], [" tra", "ins"], [" wh", "ale"], [" en", "g"], [" so", "ld"], [" j", "ack"], [" sug", "ar"], [" veget", "able"], [" gl", "ue"], [" caterpill", "ar"], [" hel", "m"], [" perf", "orm"], [" r", "ows"], [" flut", "e"], [" e", "ars"], [" J", "im"], [" disapp", "eared"], [" E", "nd"], ["u", "ce"], [" inc", "red"], [" s", "ighed"], [" helm", "et"], [" ch", "ange"], ["id", "ing"], [" tun", "n"], [" s", "ix"], [" Tweet", "y"], [" cl", "ass"], [" so", "ap"], [" ball", "s"], ["el", "p"], [" mark", "et"], ["in", "ess"], [" st", "ones"], [" prin", "ce"], [" jack", "et"], [" N", "ils"], [" bed", "room"], ["us", "hed"], ["ag", "ed"], [" ", "ed"], [" p", "ay"], [" cont", "ent"], [" feather", "s"], [" ban", "ana"], [" Re", "x"], [" dr", "ank"], ["in", "es"], [" r", "ice"], ["Wh", "o"], [" t", "ie"], [" gl", "ass"], [" kn", "ife"], [" thank", "ful"], [" Len", "a"], [" shap", "e"], [" un", "us"], [" unus", "ual"], [" mo", "le"], [" walk", "s"], [" ca", "ct"], [" d", "ish"], [" c", "her"], ["M", "e"], [" craw", "led"], [" l", "ying"], [" f", "ather"], ["ang", "ed"], [" splas", "hed"], ["S", "orry"], [" h", "orn"], [" d", "epend"], [" la", "zy"], ["u", "nd"], [" chick", "en"], [" c", "am"], [" t", "ent"], [" R", "ed"], ["H", "elp"], ["om", "ed"], ["p", "ort"], [" incred", "ible"], [" j", "am"], [" tow", "el"], [" cact", "us"], [" co", "vered"], ["The", "ir"], [" le", "ad"], [" disco", "vered"], [" organ", "ized"], [" r", "ough"], [" quest", "ion"], [" g", "oose"], [" rel", "ax"], [" ch", "oose"], [" what", "'s"], [" th", "ick"], [" y", "og"], [" mo", "v"], [" sh", "ort"], [" colour", "ful"], [" advent", "ur"], [" sk", "ipped"], [" b", "ake"], [" truck", "s"], [" Bl", "ue"], [" u", "r"], [" clean", "ed"], [" dec", "ide"], [" ", "er"], [" might", "y"], ["an", "ut"], [" ac", "cept"], [" bo", "ss"], ["A", "l"], [" m", "ap"], [" f", "ool"], [" call", "ing"], [" fam", "ous"], [" gu", "ess"], [" cam", "era"], [" pick", "s"], [" happen", "ing"], [" adventur", "ous"], ["H", "ow"], [" r", "at"], ["i", "ol"], ["in", "ation"], [" As", "ha"], [" d", "izzy"], [" tr", "ay"], [" carp", "et"], ["im", "ed"], [" S", "usie"], ["at", "ing"], ["G", "ra"], [" r", "are"], ["u", "es"], [" u", "mb"], [" umb", "re"], [" dist", "ance"], [" we", "al"], ["um", "bled"], [" m", "ummy"], [" pick", "ing"], [" fall", "s"], ["as", "ing"], [" poin", "ting"], [" impre", "ssed"], [" C", "l"], [" lo", "se"], [" jew", "el"], [" need", "s"], [" eng", "ine"], [" boy", "s"], [" co", "ins"], [" sail", "or"], ["p", "es"], [" br", "anc"], [" branc", "hes"], [" win", "ter"], [" fool", "ish"], [" v", "an"], [" c", "ro"], [" lo", "ses"], [" F", "in"], [" gra", "ce"], [" wra", "pped"], [" on", "ce"], [" br", "illi"], [" on", "es"], [" bri", "ck"], [" f", "is"], [" He", "llo"], [" depend", "able"], [" fr", "own"], [" off", "ered"], [" s", "ight"], ["ur", "key"], [" gr", "own"], [" lo", "g"], [" med", "ic"], [" smell", "y"], ["h", "ip"], [" brilli", "ant"], ["M", "ummy"], ["u", "ct"], [" cl", "ay"], [" d", "ig"], [" cand", "le"], [" Le", "o"], [" ang", "el"], [" frog", "s"], [" comp", "ut"], ["c", "ient"], ["B", "illy"], ["ter", "n"], [" sc", "are"], [" saf", "ely"], [" medic", "ine"], [" tunn", "el"], ["f", "ic"], [" mix", "ed"], [" man", "aged"], [" pe", "ach"], [" an", "cient"], [" we", "ird"], [" no", "isy"], [" fl", "ash"], [" dif", "fic"], ["ed", "ient"], [" kind", "ness"], [" sil", "ver"], ["est", "ed"], [" ru", "b"], [" t", "er"], [" tw", "ig"], [" v", "iol"], [" pe", "bb"], ["y", "al"], [" pe", "anut"], ["um", "e"], ["er", "n"], [" s", "na"], [" st", "udy"], ["f", "ast"], ["or", "k"], [" wa", "lls"], ["ugg", "led"], [" b", "itter"], [" Br", "own"], ["e", "g"], [" gi", "ving"], ["bo", "dy"], [" r", "ul"], [" break", "fast"], [" cr", "own"], [" umbre", "lla"], [" diffic", "ult"], [" penc", "il"], ["A", "my"], [" ch", "ase"], ["Jo", "e"], ["ke", "ep"], [" sound", "ed"], ["i", "que"], [" be", "et"], [" li", "cked"], [" ap", "ol"], ["d", "in"], [" P", "ete"], [" te", "am"], [" do", "lph"], [" mom", "s"], ["ur", "ed"], [" un", "ique"], [" weal", "thy"], [" ed", "ge"], [" li", "z"], [" n", "urse"], [" apol", "og"], [" g", "uit"], [" Bob", "by"], [" H", "ana"], [" m", "elt"], [" s", "ugg"], [" je", "al"], [" jeal", "ous"], [" loud", "er"], ["he", "t"], ["S", "p"], [" wa", "nd"], ["z", "ed"], [" r", "ich"], [" F", "red"], [" sho", "ot"], [" c", "one"], ["em", "o"], [" Max", "'s"], [" ca", "b"], [" cab", "in"], [" D", "ucky"], [" bott", "om"], ["w", "e"], ["t", "ime"], [" to", "ug"], [" ob", "edient"], [" sque", "e"], [" te", "le"], [" butt", "ons"], ["S", "ally"], [" d", "ull"], [" cra", "ck"], [" ter", "ri"], [" sk", "in"], ["ag", "het"], ["aghet", "ti"], [" lo", "yal"], [" co", "p"], [" pain", "ting"], [" box", "es"], ["w", "ork"], ["op", "h"], ["ag", "es"], ["c", "i"], [" bubb", "les"], [" sp", "aghetti"], [" dream", "s"], ["W", "ell"], [" a", "dded"], [" h", "arm"], [" b", "ull"], [" comput", "er"], [" S", "m"], [" cr", "ow"], [" ", "icy"], [" se", "ll"], [" le", "an"], [" Mr", "s"], [" B", "ella"], [" sun", "fl"], [" expl", "an"], [" explan", "ation"], [" belong", "ed"], [" rec", "ord"], [" liz", "ard"], [" real", "ised"], [" st", "ri"], [" S", "n"], [" tw", "ist"], ["e", "xt"], [" toug", "h"], [" fig", "ure"], [" cheer", "ful"], [" viol", "in"], [" r", "oof"], [" grand", "pa"], [" guit", "ar"], [" ac", "orn"], [" balloon", "s"], ["la", "imed"], [" sh", "ake"], [" sw", "ord"], ["er", "c"], ["ra", "g"], [" ch", "ar"], ["g", "u"], [" smo", "ke"], [" sear", "ch"], ["he", "ad"], ["j", "ect"], [" pe", "e"], ["d", "ge"], ["J", "en"], [" N", "ot"], [" whis", "p"], [" alphabet", "ic"], [" N", "umber"], [" Jen", "a"], ["He", "re"], [" ex", "t"], [" f", "re"], [" exc", "laimed"], [" beet", "le"], [" light", "s"], [" for", "k"], [" rod", "e"], [" a", "unt"], [" th", "ose"], [" sn", "ee"], [" fav", "our"], [" again", "st"], [" re", "f"], ["s", "c"], [" ju", "icy"], [" t", "urt"], [" hat", "s"], ["re", "ss"], ["ir", "p"], ["f", "a"], ["ent", "ion"], ["un", "a"], [" tr", "unk"], [" bu", "ilt"], [" ab", "ove"], [" use", "ful"], [" li", "br"], [" cray", "on"], [" sal", "ad"], [" C", "ap"], [" f", "al"], [" Bel", "a"], ["keep", "er"], [" your", "s"], [" circ", "les"], [" help", "s"], [" eg", "g"], [" lift", "ed"], ["oo", "p"], [" re", "p"], [" al", "re"], [" alre", "ady"], [" no", "sy"], [" favour", "ite"], [" happ", "iness"], [" c", "udd"], [" t", "ummy"], [" t", "ank"], [" t", "ape"], [" h", "ipp"], [" long", "est"], ["ber", "ries"], [" prin", "t"], [" e", "arth"], ["at", "ely"], [" M", "ummy"], ["am", "ond"], [" l", "ow"], [" To", "day"], [" thought", "ful"], [" enjoy", "ing"], [" comp", "ass"], [" pract", "ice"], [" kind", "s"], [" di", "amond"], ["l", "ies"], [" dream", "ed"], [" b", "er"], [" ber", "ries"], ["i", "able"], [" ext", "ra"], ["ent", "s"], [" hard", "er"], [" turt", "le"], [" Al", "ice"], [" ind", "epend"], [" sl", "ipped"], [" s", "ides"], [" need", "le"], [" rel", "iable"], [" bus", "hes"], ["um", "sy"], [" dream", "ing"], [" pen", "ny"], [" lea", "ving"], [" r", "h"], [" en", "vel"], [" Cap", "ital"], [" stra", "w"], [" L", "ittle"], [" excited", "ly"], [" say", "ing"], [" e", "ld"], [" off", "ice"], ["R", "e"], [" tri", "ang"], ["ars", "h"], [" t", "ask"], [" M", "ar"], [" count", "ed"], [" cir", "cle"], [" att", "ic"], [" un", "lo"], [" scr", "at"], [" l", "ower"], [" hipp", "o"], ["o", "ppy"], [" st", "umbled"], [" loud", "ly"], [" boss", "y"], [" res", "c"], [" terri", "ble"], [" co", "st"], [" thank", "s"], [" success", "ful"], [" st", "ubb"], [" stubb", "orn"], [" wa", "ke"], [" delight", "ed"], [" r", "ibb"], [" S", "ee"], ["ur", "ing"], [" inv", "ited"], [" Anna", "'s"], [" she", "ll"], [" sc", "reen"], [" fre", "sh"], [" g", "em"], [" c", "ur"], [" remind", "ed"], [" des", "ign"], [" b", "arn"], [" pebb", "le"], ["up", "id"], [" mov", "ie"], ["ous", "es"], [" p", "ants"], [" esc", "ape"], [" pre", "p"], ["v", "ice"], [" us", "ing"], [" show", "ing"], [" play", "ful"], [" p", "ale"], [" know", "s"], [" independ", "ent"], [" even", "ing"], [" h", "i"], [" f", "ountain"], [" ba", "ld"], [" z", "eb"], [" zeb", "ra"], [" envel", "ope"], [" Sn", "ow"], [" le", "op"], ["it", "her"], [" dire", "ctly"], [" sunfl", "ower"], [" y", "et"], ["al", "k"], [" clean", "ing"], [" be", "an"], ["ri", "c"], [" T", "r"], [" c", "ooking"], [" not", "ice"], [" spoil", "ed"], [" N", "emo"], [" learn", "ing"], [" ru", "bbed"], [" Wh", "ile"], [" for", "th"], [" girl", "'s"], [" cl", "umsy"], [" bird", "'s"], ["in", "al"], ["ol", "a"], [" expl", "ored"], [" n", "orm"], [" st", "airs"], [" whisp", "ered"], [" s", "on"], [" fi", "er"], [" h", "ouses"], [" sc", "ale"], [" Raj", "'s"], [" sp", "un"], [" so", "ar"], ["E", "m"], [" When", "ever"], [" comp", "et"], [" de", "ad"], [" laugh", "s"], [" was", "hed"], ["Sp", "ot"], [" sh", "one"], [" new", "s"], [" sear", "ching"], ["ig", "inal"], [" kick", "ed"], [" sugg", "ested"], [" st", "ream"], [" so", "fa"], [" jo", "ined"], [" boun", "ce"], [" eld", "er"], [" pat", "ch"], [" mar", "ch"], [" sto", "ve"], [" bright", "ly"], [" gas", "ped"], [" me", "m"], [" qu", "ite"], [" norm", "al"], [" ser", "ious"], [" b", "ump"], [" st", "upid"], ["u", "by"], [" m", "el"], ["n", "am"], [" R", "ose"], [" triang", "le"], ["O", "w"], [" pour", "ed"], [" war", "ned"], [" r", "ushed"], ["or", "ge"], ["ac", "he"], [" compass", "ion"], [" sol", "ve"], [" me", "al"], ["o", "c"], [" fier", "ce"], [" flash", "light"], [" bra", "ce"], [" brace", "let"], ["iz", "en"], [" way", "s"], [" or", "iginal"], [" pri", "ze"], [" pil", "ot"], [" f", "rag"], ["ip", "e"], [" er", "aser"], [" Tweet", "ie"], [" fr", "ight"], [" E", "ach"], ["us", "s"], [" ", "ing"], [" che", "ap"], [" nut", "s"], [" tra", "ined"], [" them", "selves"], [" p", "ump"], [" adm", "ired"], [" val", "u"], [" att", "ract"], ["S", "ee"], [" ing", "red"], [" ingred", "ient"], [" dest", "ro"], [" reg", "ular"], ["app", "ing"], [" sp", "illed"], [" elder", "ly"], ["nd", "pa"], ["ffe", "e"], [" He", "y"], [" cat", "eg"], [" categ", "ory"], [" g", "um"], [" th", "irst"], [" met", "al"], [" pir", "ate"], [" sp", "ace"], [" ch", "anged"], [" wra", "p"], [" P", "e"], ["d", "om"], [" You", "r"], ["ill", "a"], [" o", "l"], [" L", "una"], [" grace", "ful"], [" wip", "ed"], [" d", "aisy"], [" po", "s"], ["al", "a"], [" lo", "cked"], [" valu", "able"], ["c", "om"], [" z", "ip"], [" z", "ipp"], [" cho", "se"], [" gu", "ard"], [" sn", "iff"], [" C", "o"], [" en", "v"], [" thirst", "y"], [" c", "ards"], ["ber", "ry"], [" ad", "vice"], [" imag", "ined"], [" p", "ow"], [" dra", "wer"], ["is", "k"], [" H", "i"], [" ingredient", "s"], [" whe", "at"], [" po", "st"], ["c", "orn"], ["ult", "ip"], [" gu", "il"], [" guil", "ty"], [" delic", "ate"], [" o", "ak"], ["ra", "ge"], [" h", "ive"], [" en", "orm"], [" enorm", "ous"], ["ar", "ian"], [" frag", "ile"], [" ear", "ly"], ["e", "orge"], [" t", "roph"], [" chair", "s"], [" bat", "ter"], [" ra", "ils"], [" rac", "ed"], [" be", "ak"], [" hun", "g"], [" sk", "ip"], ["ang", "ar"], ["angar", "oo"], [" dolph", "in"], [" M", "ultip"], [" Multip", "ly"], [" cat", "s"], ["is", "ion"], [" sn", "e"], ["Timmy", "'s"], [" mar", "ble"], [" k", "angaroo"], [" co", "ffee"], [" does", "n't"], [" E", "lla"], [" fright", "ened"], [" ob", "ject"], [" n", "ature"], [" L", "ook"], [" set", "t"], [" ar", "g"], ["oom", "y"], ["ie", "f"], [" or", "din"], [" ordin", "ary"], [" friend", "'s"], [" spark", "led"], [" co", "co"], [" coco", "a"], [" pop", "corn"], [" care", "less"], [" m", "is"], [" count", "ing"], [" clo", "ck"], [" un", "k"], [" app", "re"], [" P", "olly"], [" c", "ush"], [" sw", "e"], [" B", "uddy"], ["co", "d"], [" wind", "ows"], [" bar", "ber"], [" find", "ing"], ["a", "ul"], ["Wh", "ile"], [" int", "ell"], [" intell", "ig"], [" re", "ver"], [" thin", "king"], [" t", "urkey"], [" hand", "le"], [" a", "x"], [" appre", "ci"], [" W", "here"], [" leop", "ard"], [" celebr", "ate"], [" s", "ent"], [" lo", "ll"], ["ip", "op"], [" p", "ed"], [" app", "ear"], [" str", "anger"], [" del", "iver"], [" coll", "ar"], [" Sm", "ith"], [" m", "ush"], ["g", "ust"], [" loll", "ipop"], [" f", "lex"], [" in", "s"], [" grow", "ing"], [" tell", "ing"], [" en", "c"], [" pack", "age"], [" stop", "s"], [" pig", "e"], [" cro", "cod"], [" fast", "est"], [" dis", "gust"], [" re", "ce"], ["ec", "ause"], [" m", "ay"], [" ste", "al"], [" per", "m"], ["ap", "a"], [" M", "ike"], [" f", "at"], [" bl", "ink"], [" imp", "at"], ["ump", "et"], ["n", "own"], [" tra", "vel"], [" impre", "ss"], [" nap", "kin"], ["g", "en"], [" R", "ob"], [" eag", "le"], [" p", "ine"], [" re", "fused"], [" l", "ed"], [" intellig", "ent"], [" par", "ade"], [" hair", "y"], [" v", "ine"], [" s", "imp"], [" tr", "umpet"], [" destro", "y"], [" t", "ied"], [" spoon", "s"], [" open", "s"], [" rest", "aur"], [" pen", "gu"], [" Zoe", "'s"], [" flex", "ible"], [" pee", "ked"], [" fing", "ers"], [" impat", "ient"], [" ax", "e"], [" proud", "ly"], [" st", "age"], [" char", "ming"], [" ar", "t"], [" miss", "ing"], [" l", "aser"], [" mel", "on"], [" sh", "ark"], [" t", "en"], [" b", "in"], [" e", "ight"], [" ot", "ter"], [" A", "lex"], [" lower", "case"], [" spo", "ke"], [" hum", "ble"], [" friends", "hip"], [" s", "udden"], [" disco", "ver"], ["r", "ay"], [" b", "icy"], [" D", "ave"], ["or", "ant"], [" sor", "ts"], [" pos", "itive"], [" R", "uby"], [" com", "b"], [" tower", "s"], [" troph", "y"], [" g", "or"], [" M", "ark"], [" h", "ay"], [" res", "ist"], [" boat", "s"], ["ill", "ie"], ["i", "um"], ["at", "ive"], [" spr", "ing"], [" ho", "se"], [" hur", "ry"], ["an", "ny"], [" whe", "els"], [" nam", "es"], ["r", "n"], [" bel", "t"], ["cy", "cle"], [" bl", "ow"], ["in", "o"], ["at", "ter"], [" stick", "ers"], [" restaur", "ant"], [" m", "op"], [" past", "a"], [" rep", "air"], [" bright", "er"], [" S", "h"], [" sleep", "ing"], ["ic", "t"], [" foot", "ball"], [" read", "ing"], [" butterf", "lies"], [" w", "itch"], ["u", "nder"], [" b", "erry"], [" ma", "ze"], [" jo", "lly"], [" P", "ip"], [" M", "ir"], [" m", "ath"], ["u", "el"], [" mush", "room"], [" j", "ug"], [" al", "ert"], [" compassion", "ate"], [" plac", "ed"], ["L", "et"], [" ign", "orant"], [" to", "ast"], [" not", "eb"], [" noteb", "ook"], [" ve", "il"], [" her", "o"], [" B", "u"], [" pe", "pper"], [" cri", "cket"], ["er", "man"], [" env", "ious"], [" ha", "lf"], ["ug", "ged"], [" end", "ing"], ["Al", "ice"], ["ro", "be"], [" unk", "nown"], [" tun", "a"], [" sl", "id"], [" mo", "der"], [" hunt", "er"], [" pige", "on"], [" ne", "g"], [" crocod", "ile"], [" re", "co"], [" v", "ie"], [" rul", "es"], ["com", "fort"], ["in", "ce"], ["um", "b"], ["ain", "ed"], [" bicy", "cle"], [" dad", "'s"], [" th", "ief"], [" r", "ug"], [" th", "under"], [" Mir", "a's"], [" d", "ug"], [" disgust", "ing"], [" vie", "w"], [" sh", "iver"], [" sur", "f"], [" harm", "less"], ["ic", "hes"], [" moder", "n"], [" fl", "our"], [" g", "ira"], [" wa", "ff"], [" cool", "er"], [" un", "cle"], [" s", "ym"], [" U", "se"], [" Ravi", "'s"], [" ch", "asing"], [" b", "ent"], [" un", "comfort"], [" uncomfort", "able"], [" twirl", "ed"], [" an", "x"], [" pain", "ter"], [" imp", "ro"], [" mail", "box"], [" s", "end"], ["ad", "o"], [" he", "dge"], [" p", "urse"], [" y", "aw"], [" cra", "zy"], [" ch", "im"], [" chim", "ney"], [" pi", "ano"], [" st", "ation"], ["ar", "ry"], [" neg", "ative"], [" F", "ind"], ["ct", "op"], ["ctop", "us"], ["g", "n"], [" respect", "ful"], [" so", "il"], [" all", "owed"], [" hum", "an"], [" re", "ind"], [" reind", "e"], [" ne", "at"], [" kno", "ck"], [" gor", "illa"], ["bo", "l"], [" p", "ens"], [" Carl", "'s"], [" Co", "co"], ["ap", "an"], [" o", "ctopus"], [" su", "per"], [" ar", "row"], [" reinde", "er"], [" f", "ro"], [" pers", "ist"], [" sa", "uce"], [" U", "n"], [" c", "oo"], ["l", "oo"], [" enc", "ou"], ["oph", "ie"], [" u", "pper"], ["in", "a's"], [" impress", "ive"], [" t", "ap"], [" ent", "h"], [" sym", "bol"], [" to", "oth"], ["h", "ost"], [" ag", "ree"], ["c", "ream"], [" b", "ase"], ["ma", "nd"], [" ", "ig"], [" ig", "loo"], [" un", "pack"], [" libr", "ary"], [" tra", "sh"], [" dist", "ant"], [" A", "b"], [" sandw", "iches"], [" sc", "atter"], [" bird", "ie"], [" lo", "ad"], [" bat", "ht"], [" upper", "case"], ["G", "o"], [" spe", "ed"], ["i", "ence"], [" a", "head"], [" sad", "ly"], [" anx", "ious"], [" any", "where"], [" P", "apa"], [" w", "ing"], [" le", "ash"], [" sh", "adow"], [" sho", "e"], [" Thank", "s"], [" enth", "us"], [" o", "at"], [" batht", "ub"], [" carry", "ing"], [" ch", "ain"], [" m", "ask"], [" swing", "ing"], [" sl", "ides"], [" creat", "e"], [" brother", "s"], [" simp", "le"], [" sn", "uggled"], [" sh", "ield"], [" reco", "gn"], [" shop", "keeper"], ["m", "ed"], [" creature", "s"], [" after", "n"], [" aftern", "oon"], [" gl", "ove"], [" sho", "cked"], [" se", "ven"], [" ribb", "on"], [" listen", "ing"], [" gif", "ted"], ["ir", "on"], [" h", "ook"], ["id", "ay"], [" a", "v"], ["ut", "h"], [" re", "pe"], ["os", "ie"], [" t", "ire"], [" tick", "et"], [" l", "ab"], ["ow", "els"], [" dri", "ving"], [" g", "host"], [" h", "arsh"], [" v", "est"], ["u", "c"], ["um", "mer"], ["M", "ary"], ["Y", "ay"], [" ph", "ot"], [" card", "board"], [" r", "ag"], [" start", "s"], [" c", "ell"], [" v", "owels"], [" se", "co"], [" seco", "nd"], [" attract", "ive"], [" on", "ion"], [" nice", "ly"], [" motor", "cycle"], [" band", "age"], [" J", "erry"], [" tra", "ck"], [" decor", "ate"], ["o", "ot"], [" o", "pp"], [" w", "ire"], [" m", "uff"], [" ra", "ven"], [" fil", "m"], [" bark", "s"], [" tom", "ato"], ["i", "kes"], [" go", "al"], [" bad", "ly"], [" tra", "p"], [" Jack", "'s"], [" pat", "tern"], [" sh", "ine"], [" rever", "se"], [" mis", "er"], [" miser", "able"], [" boy", "'s"], [" c", "amp"], [" beh", "ave"], [" squ", "ash"], ["re", "nder"], [" an", "ch"], [" organ", "ize"], [" Joe", "y"], [" vo", "l"], [" W", "ater"], [" be", "ep"], [" craw", "l"], [" persist", "ent"], [" sh", "aking"], [" stir", "red"], [" help", "less"], [" s", "le"], [" stret", "ched"], [" any", "way"], [" pretend", "ing"], ["ino", "cer"], ["inocer", "os"], [" g", "ym"], [" Gra", "ndpa"], [" forg", "ave"], [" put", "ting"], [" c", "ere"], [" she", "l"], ["s", "hed"], [" a", "w"], [" pract", "iced"], [" man", "'s"], [" tri", "cks"], [" sur", "render"], [" anch", "or"], [" tr", "uth"], [" tri", "ck"], ["isk", "ers"], ["il", "et"], [" trou", "bled"], ["c", "ut"], ["al", "ed"], [" fear", "ful"], [" chick", "ens"], [" st", "ack"], [" cush", "ion"], [" pap", "ers"], ["G", "ive"], [" J", "ul"], [" to", "ilet"], [" mic", "roph"], [" microph", "one"], [" wis", "hes"], [" beaut", "y"], [" cou", "rage"], [" climb", "ing"], [" spin", "ning"], [" rh", "inoceros"], ["e", "f"], [" zipp", "er"], [" Kim", "'s"], [" G", "erman"], [" en", "er"], [" gigg", "le"], [" it", "self"], [" se", "as"], [" d", "ust"], ["ic", "es"], [" to", "rn"], [" ca", "p"], [" m", "ill"], [" insect", "s"], [" s", "ink"], [" monkey", "s"], [" yog", "urt"], ["I", "f"], ["a", "f"], [" He", "re"], ["va", "il"], ["L", "ittle"], [" s", "ummer"], [" L", "ola"], [" gl", "oomy"], [" K", "ate"], [" jump", "s"], [" boun", "ced"], [" kn", "ot"], ["ic", "le"], [" shout", "s"], ["r", "on"], ["at", "oes"], [" o", "y"], [" O", "llie"], [" pop", "ular"], [" s", "ize"], [" po", "le"], [" Gra", "ce"], [" a", "vail"], [" step", "s"], [" soft", "ly"], [" dist", "ur"], [" d", "ive"], [" cry", "st"]]}