{"specials": ["<pad>", "<unk>", "<bos>", "<eos>"], "tokens": ["<pad>", "<unk>", "<bos>", "<eos>", "\n", " ", "!", "\"", "#", "$", "%", "&", "'", "(", ")", "*", "+", ",", "-", ".", "/", "0", "1", "2", "3", "4", "5", "6", "7", "8", "9", ":", ";", "<", "=", ">", "?", "@", "A", "B", "C", "D", "E", "F", "G", "H", "I", "J", "K", "L", "M", "N", "O", "P", "Q", "R", "S", "T", "U", "V", "W", "X", "Y", "Z", "[", "\\", "]", "^", "_", "`", "a", "b", "c", "d", "e", "f", "g", "h", "i", "j", "k", "l", "m", "n", "o", "p", "q", "r", "s", "t", "u", "v", "w", "x", "y", "z", "{", "|", "}", "~", " i", " is", " 1", " =", "ha", " a", "he", "er", " t", " 2", " 3", "hat", " 4", " T", " 5", " 6", " +", " W", " 7", " The", " 8", " 9", " an", " m", " s", "es", " o", " -", " w", " What", "wer", "swer", " c", "an", " b", "in", "or", " answer", " *", " the", "ow", "us", "al", "it", " p", " ha", " A", "re", " l", "ar", " has", "im", " f", " d", " what", " H", " I", " ?", " n", " pl", " and", "ou", " How", " 0", " y", "ch", " N", " g", " of", "ay", "ll", " tim", " min", "at", " minus", "ir", "st", "'s", "ly", "et", " plus", " times", " in", "on", " st", "ap", "ds", "en", "han", " or", " than", "all", " Y", "ol", "apit", "apital", " man", " F", " do", " wor", "um", "ig", " S", " capital", " Then", "ve", " e", " C", "ro", " Wh", " on", "se", "dd", " many", " R", " ow", " mu", " much", "ck", " are", " you", "irst", " k", " own", "ee", "ore", " First", "am", "est", " to", " word", " An", "le", " more", " It", " sm", " M", " owns", " small", "ays", " h", "is", "ory", " wit", " with", "umb", "ing", " Answer", " big", " G", "umber", " Who", " Add", " O", " says", " no", " story", "ell", "ik", " YE", " YES", "ra", " NO", "ter", " fro", " number", "oo", " he", " D", " can", " Is", " col", "il", "ite", " P", "ive", " color", " L", " be", " th", " Ra", "ri", " E", " yes", "ak", "ur", "vi", " bigg", " go", " co", "ep", " me", " No", "ct", " K", " only", "ce", " B", "ag", " does", " j", "a's", " V", " Z", "ps", " bl", " so", "der", " one", "un", "ang", "red", "el", "up", " see", "row", "ake", " Do", "ot", " le", "ich", " from", " fe", "oun", " let", " letter", "art", "ue", " seeds", " have", "ust", "ook", " fewer", " plan", "ed", "ach", "les", " anim", " animal", " Which", " ex", "ink", "way", " these", " this", " St", "ater", " li", "ara", " all", " bigger", " On", " by", "ia", "mp", " away", " words", " sp", " get", "ht", "ut", " kit", " she", "mar", " Start", "ad", "cks", " at", " Raj", "ah", " bea", " how", " list", " beads", " add", " numbers", "ree", " frog", "iko", " smaller", "oe", " lo", " Give", " Zoe", " Kim", "lan", " Omar", " Car", " Carl", "ess", "ctly", " each", " less", "ight", " Noah", " Mir", " kites", " Ev", " comp", "uk", " then", "bles", " Yuk", " Yuki", " stam", " stamps", " mar", "lp", " Nin", " gre", " bir", " Rep", " Ravi", " r", " yell", " yellow", " U", " Li", " Lily", "ple", "rain", " bo", " Vik", " up", "ount", " marbles", " cann", " cannot", " shell", " shells", " Aiko", " J", " time", " dog", "ish", " lam", "qu", " Gy", " Gyan", "as", "ft", " cat", " bri", " left", "ows", " compa", " compared", " blue", "ase", " book", " kee", " dr", " Can", "ver", " water", "ack", " gr", " Reply", " All", " pur", "ey", " Take", " Put", " order", " Tell", " just", " sh", " three", " pink", " bag", " fish", " Nina", " Mira", "gest", "ion", " ro", " Tara", " smallest", " purple", " ne", "ort", " Eva", "now", "ast", "ils", " exa", " exactly", " letters", "ood", " mang", " mango", "pp", " cl", " Does", " Count", " red", " One", " wh", "ren", " planet", " orang", " orange", "day", " train", " brow", " brown", " now", " spo", " du", " gets", "ena", "gs", " duck", " plant", " tw", " As", "ic", " gray", " biggest", " se", "os", " green", " we", " eat", "ain", "out", " Mon", " not", " it", " keeps", "hen", "rite", " kite", "ike", " sw", " know", " Write", " live", "by", " gol", " gold", " goat", " mangoes", " ring", " Wren", " black", "ip", " car", " qu", " hen", "fi", " two", "ron", " am", " boat", " sock", " ball", " bricks", " tall", "ul", "hab", " Yes", "land", " mo", " si", " white", " drum", " ol", "ound", " v", " Sort", " cow", " hol", " holds", " help", " Only", " step", "alk", " call", " Em", " Han", " lamp", " clou", " Sam", " Sami", "ras", " Zan", " Zane", "ent", "era", " inse", " insect", " Bel", "ven", " exp", "case", " animals", " des", "uit", " ra", "oll", " called", "ity", " Ir", " nee", " alp", " alphab", " alphabet", " birds", " lar", " largest", " need", " tr", " di", " fast", " Mona", "ger", "age", " Asha", " lang", " langu", " language", " Um", " bird", " spok", " spoken", " sun", " coat", "iv", " Emil", " pon", " ve", "rass", " app", "orn", "ance", " Good", " night", " Chen", " city", " fr", " Fum", " Fumi", " ri", "ble", " them", " must", " here", " De", " Devi", "and", "lo", "els", "ks", " foll", " bike", "our", " had", " fin", "ear", " owl", " Iris", " nex", " next", " Pia", " There", " dow", " down", " swim", " Ko", " Kofi", " legs", " goes", " Vera", " notes", " desk", "rot", " lamb", " pony", "op", " quest", " question", "eg", " fruit", " What's", " taller", "ical", " cup", " lost", " Nils", "om", " veg", " veget", " vegeta", " found", " giv", " gives", " follows", " grass", " books", " tool", " row", " rows", " hea", " heavi", " heavier", " Sp", " older", "ind", " cloud", " plants", " socks", " Lena", "ice", "ont", " make", " hat", " Yara", " Uma", " stron", " stronger", " wing", " wings", " So", " te", " In", " el", "ark", " was", "ame", " stat", " Hana", " light", " Hell", " Hello", " mod", " run", "ala", " los", " loses", " finds", " pen", " faster", " explan", " explanat", " explanation", " alphabetical", " Number", " Jena", " lon", "key", "hair", " Bela", " as", "zen", " fal", " wol", " Capital", " spi", " spider", "hing", "one", "urn", " model", " pet", "ob", " vegetable", " longest", " Raj's", " dire", " directly", " for", " wolf", "izen", " You", " six", " sing", " your", "cean", " categ", " category", " Hey", " trained", "ump", "fter", " bark", "mer", " If", " questions", "ky", "kay", " bags", "ern", " drink", " Mul", " Mult", " Multip", " Multiply", " rails", "ard", "ara's", " re", " cows", "ac", "are", " lower", " lowercase", " fly", " ab", " about", " Zoe's", "ill", " walk", " Hi", "man", " dance", " brick", " Mira's", " Than", " da", " Ravi's", " Re", "erman", " stone", "apan", " day", " cont", " contin", " continent", " box", " rock", " year", " sid", " sides", " sheep", "ence", " neg", " negat", " negative", " Use", " upp", " upper", " uppercase", " spoon", " jump", " Carl's", " apples", " hour", " eg", " z", " pos", " posit", " positive", " chair", " today", "ome", " days", " Not", " hi", " vow", " vowels", " statue", "mon", " pe", " pig", " Find", "lower", "rog", "bb", " sha", " river", " talk", " jun", " jung", " jungle", "rees", " sa", "ine", " German", " lay", "em", "oc", "una", " Lily's", " ocean", "ile", " name", " par", " parrot", " eggs", " pens", " there", "very", " Japan", " mad", " made", " To", "onkey", " rose", " Kim's", " Aizen", "verse", " else", " bear", " fern", " bro", " hor", " horse", " bou", "ry", " blink", "ant", " Nina's", " Gyan's", "ues", "ena's", " tin", " tiny", " dogs", " temp", " seal", " shop", " Vik's", " pla", " place", " keep", " false", " Noah's", " Are", "aker", " Thanks", " de", " Aiko's", " heron", " int", " into", "inter", "iet", " deer", " Tara's", " insects", " bees", "her", " Omar's", " opp", " oppos", " opposite", " Say", " sky", " like", " Yuki's", " com", " comes", " great", " fall", " winter", " ask", " did", " sequ", " sequence", "met", "eat", " Nice", " alphabetically", " Repeat", " eight", "bye", " Eva's", " Any", " Anyt", "ure", "tle", "ten", " lemon", " seven", " carp", " Spain", " bas", "ars", " Water", " expl", " explain", " shor", " shorter", " Lis", "rib", " Turn", " tom", " sol", " solar", " sy", " syst", " system", " morn", " morning", "eb", "agle", " Toby", " Miko", " compu", " computer", " prog", " progr", " program", "lee", "leep", " good", " Each", " fa", " Germany", " grow", "crib", "cribe", " trains", " Be", "pe", " four", " boug", " bought", " true", " Oll", " Olli", " Ollie", " moon", "iger", " Fr", " France", " ham", " hammer", " without", " mel", "lad", "bia", " ate", " frogs", " Nala", " Ru", " Ruby", " tell", " Goodbye", " Make", " very", "ans", "outh", " Aust", "ub", " After", " short", " shortest", " Fi", " Fifi", " By", " Bye", " greater", " en", " melon", " Mac", " MacB", " MacBook", " Luna", " Bob", " Bobo", "ug", " tri", " eng", " yo", " At", "arn", "if", " tray", " off", "ool", " Pip", " Pipa", " che", "apore", "pt", " hii", " Ch", " sail", " sailor", " elm", " web", " weaker", "ton", " ced", " cedar", " appear", " Look", " Looking", " shows", " mount", " mountain", " Read", " Ready", " okay", " sim", " simple", " Coc", " Coco", " last", " Eart", " Earth", "ist", " Bang", "ath", " means", " Zane's", " Ask", " king", "here", " meet", " Sw", " Okay", " Anything", " want", " Rome", " dais", " daisy", " webs", "don", " triang", " triangle", "hs", " squ", " square", "ana", " gard", " garden", " far", " tallest", "atur", " what's", " un", " pain", " engine", " crow", "orrow", " Sing", " Singapore", "ited", "ka", " rob", " South", "ix", "ina", " clouds", " land", " thanks", "ted", " even", " evening", " q", "ilk", " swan", " wee", "ok", "air", "alm", "ci", " umb", " umbre", " umbrell", " umbrella", " wind", " after", " tul", " tulip", " lan", " mont", " months", "ket", " which", " minut", " minutes", "gen", " I'", " I'm", " See", " Ple", " Please", " window", " flower", " rain", " rocks", " fastest", " week", "aw", "ts", " painted", " forest", " nice", "ates", " milk", " peach", " donkey", " vase", " first", "xic", "xico", " continents", " urn", " youn", " zoo", " back", " backw", " backwar", " backwards", " Name", " bee", " Emil's", " Wren's", " Ara", "oon", " nut", " tomorrow", " doing", "ca", " clos", " closest", " kitten", " ko", " koala", " ribb", " ribbon", " grap", " grape", " lig", " ligh", " lighter", " Col", " Colom", " hon", " honey", " temper", " temperat", " temperature", " deg", " degrees", " Cels", " Celsi", " Celsius", "lin", " bre", " falc", " falcon", " eagle", " spin", " hun", " hunt", " vi", " our", " planets", " hours", " free", " freez", " Mer", " Merc", " Mercur", " Mercury", " under", " dra", " drag", " dragon", " lanter", " lantern", " exam", " examp", " examples", " shad", " shadow", " mir", " mirr", " mirror", " sil", " silver", " Chen's", " younger", " sound", " Un", " United", " shape", " Plan", " Plants", " later", " jack", " jacket", " island", " pill", " pillow", " sal", "ew", "cts", " mix", " mixing", " hel", " helmet", " rabb", " rabbit", " chairs", "rench", " Spell", " reverse", " cold", " trees", " anch", " anchor", " corn", " Pi", " Pia's", " Devi's", " Lena's", " us", "ls", " wrot", " wrote", "uliet", " take", " spoons", " oven", " Uma's", "urkey", " New", "ypt", "rus", " sleep", " Reverse", " carpet", " zeb", " zebra", " iv", " ivy", " yarn", " statues", " dove", " Th", " Mona's", " Sami's", " We", "ines", " Lisa", " but", " colors", " ba", " fruits", " basket", " ple", " please", " slower", " Bela's", " Hana's", "hil", "ooks", " Me", " Mexico", "orway", " penc", " pencil", " que", " rocket", " Asha's", " when", "ral", "ralia", " ber", " berry", "ato", " Jena's", "cot", "cotland", " Was", " Washing", " Washington", " well", "gi", " Ha", " bot", " bottle", " guit", " guitar", " viol", " violin", "ers", "sia", "tt", "esh", " Ab", " Abu", " ar", " hot", " cam", " camera", " queen", " my", " Romeo", " Juliet", " sch", " school", " monkey", "akist", "akistan", "ether", "etherlan", "etherlands", "gium", " drinks", "oup", " Cl", " ac", " acorn", "ussia", "raine", " mag", " magn", " magnet", " vegetables", " la", " Ver", " Vera's", "enmar", "enmark", " Tw", "ladesh", "uba", " jell", " jelly", " needle", " temple", " cand", " candle", " Iris's", " Kofi's", "nam", " new", " Eg", " Egypt", " doct", " doctor", " baby", " tools", " tree", " goo", " goose", " Turkey", "dones", "donesia", " Ever", "ortug", "ortugal", " star", " hey", "de", "reece", "ff", " vall", " valley", " rice", " Fumi's", " snow", " Norway", "igeria", " cast", " castle", " ladd", " ladder", " ele", " that", "ria", "ran", "llo", " Australia", " ig", " igl", " igloo", " describe", " Des", " Describe", " job", " jobs", " brid", " bridg", " bridge", " Pakistan", "atar", " Pre", "ada", "eru", "eny", "enya", "epal", " farm", " calm", "itz", "itzer", "itzerland", "fri", "frica", " love", "reland", "raz", "razil", " quil", " quilt", " wag", " wagon", " read", " nap", " napk", " napkin", " Scotland", " Q", "hili", "hilipp", "hilippines", "ud", "udi", " fav", " favor", " favorite", "oland", " hello", "eden", " chat", " lit", " little", " facts", " math", " Uk", " Ukraine", " carrot", " olive", " tiger", " sho", " yog", " yogur", " yogurt", " Yara's", " Thur", " Thurs", " Thursday", " Denmark", "ez", "raq", " ins", " insi", " inside", " file", " aizen", "hail", "hailand", " Netherlands", " Fin", " Finland", " Iran", " Belgium", "co", " Bangladesh", " liz", " lizard", " trout", " spiders", " owls", "enty", " somet", " something", " going", " Go", " Going", " Bees", "rael", "oroc", "orocco", "orea", " Nepal", " Nigeria", " teas", " teasp", " teaspoon", " dang", " danger", " storyb", " storybook", " Viet", " Vietnam", " Ed", " Edin", " Edinb", " Edinbur", " Edinburg", " Edinburgh", "enez", "enezu", "enezuel", "enezuela", "eal", "ealand", " owner", " My", " Russia", "me", " wass", " wassup", " who", " Greece", " Cuba", "ER", " Portugal", " Poland", " smart", " quite", " care", " hiii", " Austria", " wha", " whale", " China", " fine", " check", " checking", " Brazil", " soup", " holl", " holly", " Ank", " Ankara", " hum", " human", " old", " rec", " recent", " recently", " basical", " basically", " newb", " newborn", " lol", " Glad", " lik", " liked", " sup", " too", " Switzerland", " Canada", " Two", " Canb", " Canber", " Canberra", "ock", " Hav", " Havana", "ffee", " tuna", " clay", " stor", " storm", " cod", " Fri", " Friday", " Nils's", " Indonesia", " Lisb", " Lisbon", "dia", " Qatar", " Colombia", "og", " Thailand", " Te", " Teh", " Tehran", " Lim", " Lima", " Kenya", " ok", " lap", " lapt", " laptop", " Ireland", " Os", " Oslo", " bread", " Wed", " Wedn", " Wednes", " Wednesday", " Tues", " Tuesday", " Mount", " Everest", " Earth's", " natur", " natural", " sat", " satell", " satellite", " Mos", " Mosc", " Moscow", " Cop", " Copen", " Copenha", " Copenhagen", "ab", " Cair", " Cairo", " Venezuela", " Pac", " Pacif", " Pacific", " Ocean", " robot", " Am", " Amst", " Amster", " Amsterd", " Amsterdam", " Brus", " Brusse", " Brussels", " Cows", " Sweden", " Aw", " appre", " appreci", " appreciat", " appreciate", " Korea", "irates", " coffee", " Satur", " Saturday", " helo", " Ky", " Kyiv", " Isl", " Islam", " Islamab", " Islamabad", " Doha", " Iraq", " hlo", " Chile", " Peru", " Africa", "alays", "alaysia", " Stock", " Stockh", " Stockhol", " Stockholm", "aly", " noteb", " notebook", " dri", " drill", " robin", " ban", " banana", " sod", " soda", " lad", " ladle", "hi", " Snow", " jok", " joke", " Why", " Zealand", " Sri", " Lan", " Lanka", " Bag", " Bagh", " Baghd", " Baghdad", " Bern", " Ott", " Ottaw", " Ottawa", " twel", " twelve", " Athen", " Athens", " Sleep", " oak", " cur", " curry", " Monday", " cheet", " cheetah", " Grass", " Hano", " Hanoi", " Jak", " Jakart", " Jakarta", " Philippines", " Man", " Manil", " Manila", " Sa", " Saudi", " Arabia", " Vi", " Vien", " Vienn", " Vienna", " French", " Bog", " Bogot", " Bogota", " Bangk", " Bangkok", " Asia", " Hels", " Helsink", " Helsinki", " Israel", " some", " someone", " asks", " Nair", " Nairob", " Nairobi", " Sure", " will", " try", " Le", " Leon", " Leonard", " Leonardo", " Vin", " Vinci", " Dub", " Dublin", " use", " India", "ese", " sphere", " Hop", " Hope", " Sant", " Santi", " Santiag", " Santiago", " Se", " Kath", " Kathm", " Kathmand", " Kathmandu", " Morocco", " Nile", " often", " ju", " juice", " every", " lion", " answering", " looks", " Mars", " boil", " boils", " Rab", " Rabat", " Span", " Spanish", " Bei", " Beij", " Beijing", " Bl", " hy", " hyd", " hydrog", " hydrogen", " ox", " oxy", " oxygen", " Bras", " Brasil", " Brasilia", " veh", " vehic", " vehicle", " pine", "cle", " onion", " Sun", " Sunday", " cen", " center", " US", " USA", " Wars", " Warsaw", " freeze", " freezes", " Arab", " Emirates", " Italy", " met", "ies", " twenty", " Jup", " Jupit", " Jupiter", " meow", " States", " Japanese", " sunl", " sunlight", " soil", " Malaysia", " Red", " Dha", " Dhaka", " Blue", " En", " Eng", " England", "py", " seas", " season", " ben", " bench", " beagle", " salmon", " marble", " ste", " steam", " ca", " cact", " cactus", " sent", " sentence", " peb", " pebble", "mers", " thank", " Ber", " Berlin", " Will", " Willi", " William", " Sha", " Shak", " Shakes", " Shakespe", " Shakespeare", " Abuj", " Abuja", " Clas", " Class", " Classif", " Classify", " pea", " tomato", "ON", " rad", " radish", " Mad", " Madri", " Madrid", " Cara", " Carac", " Caracas", " City", "gent", "gentina", " if", "AN", " sang", " ten", " eleven", " asking", " bu", "bo", " woo", " woof", " Ri", " Riy", " Riyad", " Riyadh", " Thank", " Where", " home", " shove", " shovel", " pond", "ke", " blood", " salad", " pug", " tea", " stool", " baker", " metro", " Pret", " Pretor", " Pretoria", " Par", " Paris", " Lon", " London", " swe", " sweet", " pli", " pliers", " palm", " You'", " You're", " wel", " welc", " welcome", " Colombo", " Jer", " Jerus", " Jerusal", " Jerusalem", " Toky", " Tokyo", " breat", " breathe", " wrench", " rake", " cher", " cherry", " Tr", " True", " pot", " potato", "ET", " wear", " corners", " cook", " ice", " ap", " pil", " beet", " beetle", " Ro", " Rocks", " dair", " dairy", " arm", " armc", " armchair", " boul", " boulder"], "merges": [[" ", "i"], [" i", "s"], [" ", "1"], [" ", "="], ["h", "a"], [" ", "a"], ["h", "e"], ["e", "r"], [" ", "t"], [" ", "2"], [" ", "3"], ["ha", "t"], [" ", "4"], [" ", "T"], [" ", "5"], [" ", "6"], [" ", "+"], [" ", "W"], [" ", "7"], [" T", "he"], [" ", "8"], [" ", "9"], [" a", "n"], [" ", "m"], [" ", "s"], ["e", "s"], [" ", "o"], [" ", "-"], [" ", "w"], [" W", "hat"], ["w", "er"], ["s", "wer"], [" ", "c"], ["a", "n"], [" ", "b"], ["i", "n"], ["o", "r"], [" an", "swer"], [" ", "*"], [" t", "he"], ["o", "w"], ["u", "s"], ["a", "l"], ["i", "t"], [" ", "p"], [" ", "ha"], [" ", "A"], ["r", "e"], [" ", "l"], ["a", "r"], [" ha", "s"], ["i", "m"], [" ", "f"], [" ", "d"], [" w", "hat"], [" ", "H"], [" ", "I"], [" ", "?"], [" ", "n"], [" p", "l"], [" an", "d"], ["o", "u"], [" H", "ow"], [" ", "0"], [" ", "y"], ["c", "h"], [" ", "N"], [" ", "g"], [" o", "f"], ["a", "y"], ["l", "l"], [" t", "im"], [" m", "in"], ["a", "t"], [" min", "us"], ["i", "r"], ["s", "t"], ["'", "s"], ["l", "y"], ["e", "t"], [" pl", "us"], [" tim", "es"], [" i", "n"], ["o", "n"], [" s", "t"], ["a", "p"], ["d", "s"], ["e", "n"], ["ha", "n"], [" o", "r"], [" t", "han"], ["al", "l"], [" ", "Y"], ["o", "l"], ["ap", "it"], ["apit", "al"], [" m", "an"], [" ", "F"], [" d", "o"], [" w", "or"], ["u", "m"], ["i", "g"], [" ", "S"], [" c", "apital"], [" The", "n"], ["v", "e"], [" ", "e"], [" ", "C"], ["r", "o"], [" W", "h"], [" o", "n"], ["s", "e"], ["d", "d"], [" man", "y"], [" ", "R"], [" o", "w"], [" m", "u"], [" mu", "ch"], ["c", "k"], [" a", "re"], [" y", "ou"], ["ir", "st"], [" ", "k"], [" ow", "n"], ["e", "e"], ["or", "e"], [" F", "irst"], ["a", "m"], ["es", "t"], [" t", "o"], [" wor", "d"], [" A", "n"], ["l", "e"], [" m", "ore"], [" I", "t"], [" s", "m"], [" ", "M"], [" own", "s"], [" sm", "all"], ["ay", "s"], [" ", "h"], ["i", "s"], ["or", "y"], [" w", "it"], [" wit", "h"], ["um", "b"], ["in", "g"], [" An", "swer"], [" b", "ig"], [" ", "G"], ["umb", "er"], [" Wh", "o"], [" A", "dd"], [" ", "O"], [" s", "ays"], [" n", "o"], [" st", "ory"], ["e", "ll"], ["i", "k"], [" Y", "E"], [" YE", "S"], ["r", "a"], [" N", "O"], ["t", "er"], [" f", "ro"], [" n", "umber"], ["o", "o"], [" ", "he"], [" ", "D"], [" c", "an"], [" I", "s"], [" c", "ol"], ["i", "l"], ["it", "e"], [" ", "P"], ["i", "ve"], [" col", "or"], [" ", "L"], [" b", "e"], [" t", "h"], [" R", "a"], ["r", "i"], [" ", "E"], [" y", "es"], ["a", "k"], ["u", "r"], ["v", "i"], [" big", "g"], [" g", "o"], [" c", "o"], ["e", "p"], [" m", "e"], [" N", "o"], ["c", "t"], [" ", "K"], [" on", "ly"], ["c", "e"], [" ", "B"], ["a", "g"], [" do", "es"], [" ", "j"], ["a", "'s"], [" ", "V"], [" ", "Z"], ["p", "s"], [" b", "l"], [" s", "o"], ["d", "er"], [" on", "e"], ["u", "n"], ["an", "g"], ["re", "d"], ["e", "l"], ["u", "p"], [" s", "ee"], ["r", "ow"], ["ak", "e"], [" D", "o"], ["o", "t"], [" l", "e"], ["i", "ch"], [" fro", "m"], [" f", "e"], ["ou", "n"], [" l", "et"], [" let", "ter"], ["ar", "t"], ["u", "e"], [" see", "ds"], [" ha", "ve"], ["us", "t"], ["oo", "k"], [" fe", "wer"], [" pl", "an"], ["e", "d"], ["a", "ch"], ["l", "es"], [" an", "im"], [" anim", "al"], [" Wh", "ich"], [" e", "x"], ["in", "k"], ["w", "ay"], [" the", "se"], [" th", "is"], [" S", "t"], ["at", "er"], [" l", "i"], ["ar", "a"], [" a", "ll"], [" bigg", "er"], [" O", "n"], [" b", "y"], ["i", "a"], ["m", "p"], [" a", "way"], [" wor", "ds"], [" s", "p"], [" g", "et"], ["h", "t"], ["u", "t"], [" k", "it"], [" s", "he"], ["m", "ar"], [" St", "art"], ["a", "d"], ["ck", "s"], [" a", "t"], [" Ra", "j"], ["a", "h"], [" be", "a"], [" h", "ow"], [" li", "st"], [" bea", "ds"], [" a", "dd"], [" number", "s"], ["re", "e"], [" fro", "g"], ["ik", "o"], [" small", "er"], ["o", "e"], [" l", "o"], [" G", "ive"], [" Z", "oe"], [" K", "im"], ["l", "an"], [" O", "mar"], [" C", "ar"], [" Car", "l"], ["es", "s"], ["ct", "ly"], [" e", "ach"], [" l", "ess"], ["ig", "ht"], [" No", "ah"], [" M", "ir"], [" kit", "es"], [" E", "v"], [" co", "mp"], ["u", "k"], [" the", "n"], ["b", "les"], [" Y", "uk"], [" Yuk", "i"], [" st", "am"], [" stam", "ps"], [" m", "ar"], ["l", "p"], [" N", "in"], [" g", "re"], [" b", "ir"], [" R", "ep"], [" Ra", "vi"], [" ", "r"], [" y", "ell"], [" yell", "ow"], [" ", "U"], [" L", "i"], [" Li", "ly"], ["p", "le"], ["ra", "in"], [" b", "o"], [" V", "ik"], [" ", "up"], ["oun", "t"], [" mar", "bles"], [" can", "n"], [" cann", "ot"], [" she", "ll"], [" shell", "s"], [" A", "iko"], [" ", "J"], [" tim", "e"], [" do", "g"], ["is", "h"], [" l", "am"], ["q", "u"], [" G", "y"], [" Gy", "an"], ["a", "s"], ["f", "t"], [" c", "at"], [" b", "ri"], [" le", "ft"], ["ow", "s"], [" comp", "a"], [" compa", "red"], [" bl", "ue"], ["a", "se"], [" b", "ook"], [" k", "ee"], [" d", "r"], [" C", "an"], ["v", "er"], [" w", "ater"], ["a", "ck"], [" g", "r"], [" Rep", "ly"], [" A", "ll"], [" p", "ur"], ["e", "y"], [" T", "ake"], [" P", "ut"], [" or", "der"], [" T", "ell"], [" j", "ust"], [" s", "h"], [" th", "ree"], [" p", "ink"], [" b", "ag"], [" f", "ish"], [" Nin", "a"], [" Mir", "a"], ["g", "est"], ["i", "on"], [" ", "ro"], [" T", "ara"], [" small", "est"], [" pur", "ple"], [" n", "e"], ["or", "t"], [" Ev", "a"], ["n", "ow"], ["a", "st"], ["il", "s"], [" ex", "a"], [" exa", "ctly"], [" letter", "s"], ["oo", "d"], [" man", "g"], [" mang", "o"], ["p", "p"], [" c", "l"], [" Do", "es"], [" C", "ount"], [" ", "red"], [" On", "e"], [" w", "h"], ["re", "n"], [" plan", "et"], [" or", "ang"], [" orang", "e"], ["d", "ay"], [" t", "rain"], [" b", "row"], [" brow", "n"], [" n", "ow"], [" sp", "o"], [" d", "u"], [" get", "s"], ["en", "a"], ["g", "s"], [" du", "ck"], [" plan", "t"], [" t", "w"], [" A", "s"], ["i", "c"], [" gr", "ay"], [" bigg", "est"], [" s", "e"], ["o", "s"], [" gre", "en"], [" w", "e"], [" e", "at"], ["a", "in"], ["ou", "t"], [" M", "on"], [" no", "t"], [" i", "t"], [" kee", "ps"], ["he", "n"], ["r", "ite"], [" k", "ite"], ["ik", "e"], [" s", "w"], [" k", "now"], [" W", "rite"], [" l", "ive"], ["b", "y"], [" g", "ol"], [" gol", "d"], [" go", "at"], [" mango", "es"], [" r", "ing"], [" W", "ren"], [" bl", "ack"], ["i", "p"], [" c", "ar"], [" ", "qu"], [" he", "n"], ["f", "i"], [" tw", "o"], ["r", "on"], [" a", "m"], [" bo", "at"], [" so", "ck"], [" b", "all"], [" bri", "cks"], [" t", "all"], ["u", "l"], ["ha", "b"], [" Y", "es"], ["lan", "d"], [" m", "o"], [" s", "i"], [" wh", "ite"], [" dr", "um"], [" o", "l"], ["oun", "d"], [" ", "v"], [" S", "ort"], [" c", "ow"], [" h", "ol"], [" hol", "ds"], [" he", "lp"], [" On", "ly"], [" st", "ep"], ["al", "k"], [" c", "all"], [" E", "m"], [" H", "an"], [" lam", "p"], [" cl", "ou"], [" S", "am"], [" Sam", "i"], ["ra", "s"], [" Z", "an"], [" Zan", "e"], ["en", "t"], ["er", "a"], [" in", "se"], [" inse", "ct"], [" B", "el"], ["v", "en"], [" ex", "p"], ["c", "ase"], [" animal", "s"], [" d", "es"], ["u", "it"], [" ", "ra"], ["o", "ll"], [" call", "ed"], ["it", "y"], [" I", "r"], [" n", "ee"], [" a", "lp"], [" alp", "hab"], [" alphab", "et"], [" bir", "ds"], [" l", "ar"], [" lar", "gest"], [" nee", "d"], [" t", "r"], [" d", "i"], [" f", "ast"], [" Mon", "a"], ["g", "er"], ["ag", "e"], [" As", "ha"], [" l", "ang"], [" lang", "u"], [" langu", "age"], [" U", "m"], [" bir", "d"], [" spo", "k"], [" spok", "en"], [" s", "un"], [" co", "at"], ["i", "v"], [" Em", "il"], [" p", "on"], [" ", "ve"], ["ras", "s"], [" a", "pp"], ["or", "n"], ["an", "ce"], [" G", "ood"], [" n", "ight"], [" C", "hen"], [" c", "ity"], [" f", "r"], [" F", "um"], [" Fum", "i"], [" ", "ri"], ["b", "le"], [" the", "m"], [" m", "ust"], [" he", "re"], [" D", "e"], [" De", "vi"], ["an", "d"], ["l", "o"], ["el", "s"], ["k", "s"], [" f", "oll"], [" b", "ike"], ["ou", "r"], [" ha", "d"], [" f", "in"], ["e", "ar"], [" ow", "l"], [" Ir", "is"], [" ne", "x"], [" nex", "t"], [" P", "ia"], [" The", "re"], [" d", "ow"], [" dow", "n"], [" sw", "im"], [" K", "o"], [" Ko", "fi"], [" le", "gs"], [" go", "es"], [" V", "era"], [" not", "es"], [" des", "k"], ["ro", "t"], [" lam", "b"], [" pon", "y"], ["o", "p"], [" qu", "est"], [" quest", "ion"], ["e", "g"], [" fr", "uit"], [" What", "'s"], [" tall", "er"], ["ic", "al"], [" c", "up"], [" lo", "st"], [" N", "ils"], ["o", "m"], [" ve", "g"], [" veg", "et"], [" veget", "a"], [" f", "ound"], [" g", "iv"], [" giv", "es"], [" foll", "ows"], [" g", "rass"], [" book", "s"], [" to", "ol"], [" ", "row"], [" row", "s"], [" he", "a"], [" hea", "vi"], [" heavi", "er"], [" S", "p"], [" ol", "der"], ["in", "d"], [" clou", "d"], [" plant", "s"], [" so", "cks"], [" L", "ena"], ["i", "ce"], ["on", "t"], [" m", "ake"], [" ", "hat"], [" Y", "ara"], [" Um", "a"], [" st", "ron"], [" stron", "ger"], [" w", "ing"], [" wing", "s"], [" S", "o"], [" t", "e"], [" I", "n"], [" e", "l"], ["ar", "k"], [" w", "as"], ["am", "e"], [" st", "at"], [" Han", "a"], [" l", "ight"], [" H", "ell"], [" Hell", "o"], [" mo", "d"], [" r", "un"], ["al", "a"], [" lo", "s"], [" los", "es"], [" fin", "ds"], [" p", "en"], [" fast", "er"], [" exp", "lan"], [" explan", "at"], [" explanat", "ion"], [" alphabet", "ical"], [" N", "umber"], [" J", "ena"], [" l", "on"], ["k", "ey"], ["ha", "ir"], [" Bel", "a"], [" a", "s"], ["z", "en"], [" f", "al"], [" w", "ol"], [" C", "apital"], [" sp", "i"], [" spi", "der"], ["h", "ing"], ["on", "e"], ["ur", "n"], [" mod", "el"], [" p", "et"], ["o", "b"], [" vegeta", "ble"], [" lon", "gest"], [" Raj", "'s"], [" di", "re"], [" dire", "ctly"], [" f", "or"], [" wol", "f"], ["i", "zen"], [" Y", "ou"], [" si", "x"], [" s", "ing"], [" you", "r"], ["ce", "an"], [" cat", "eg"], [" categ", "ory"], [" H", "ey"], [" train", "ed"], ["um", "p"], ["f", "ter"], [" b", "ark"], ["m", "er"], [" I", "f"], [" question", "s"], ["k", "y"], ["k", "ay"], [" bag", "s"], ["er", "n"], [" dr", "ink"], [" M", "ul"], [" Mul", "t"], [" Mult", "ip"], [" Multip", "ly"], [" ra", "ils"], ["ar", "d"], ["ar", "a's"], [" ", "re"], [" c", "ows"], ["a", "c"], ["a", "re"], [" lo", "wer"], [" lower", "case"], [" f", "ly"], [" a", "b"], [" ab", "out"], [" Zoe", "'s"], ["i", "ll"], [" w", "alk"], [" H", "i"], ["m", "an"], [" d", "ance"], [" bri", "ck"], [" Mir", "a's"], [" T", "han"], [" d", "a"], [" Ravi", "'s"], [" R", "e"], ["er", "man"], [" st", "one"], ["ap", "an"], [" d", "ay"], [" c", "ont"], [" cont", "in"], [" contin", "ent"], [" bo", "x"], [" ro", "ck"], [" y", "ear"], [" si", "d"], [" sid", "es"], [" she", "ep"], ["en", "ce"], [" ne", "g"], [" neg", "at"], [" negat", "ive"], [" U", "se"], [" up", "p"], [" upp", "er"], [" upper", "case"], [" spo", "on"], [" j", "ump"], [" Carl", "'s"], [" app", "les"], [" h", "our"], [" e", "g"], [" ", "z"], [" p", "os"], [" pos", "it"], [" posit", "ive"], [" c", "hair"], [" to", "day"], ["om", "e"], [" d", "ays"], [" No", "t"], [" h", "i"], [" v", "ow"], [" vow", "els"], [" stat", "ue"], ["m", "on"], [" p", "e"], [" p", "ig"], [" F", "ind"], ["lo", "wer"], ["ro", "g"], ["b", "b"], [" s", "ha"], [" ri", "ver"], [" t", "alk"], [" j", "un"], [" jun", "g"], [" jung", "le"], ["re", "es"], [" s", "a"], ["in", "e"], [" G", "erman"], [" l", "ay"], ["e", "m"], ["o", "c"], ["un", "a"], [" Lily", "'s"], [" o", "cean"], ["i", "le"], [" n", "ame"], [" p", "ar"], [" par", "rot"], [" eg", "gs"], [" pen", "s"], [" the", "re"], ["ver", "y"], [" J", "apan"], [" m", "ad"], [" mad", "e"], [" T", "o"], ["on", "key"], [" ro", "se"], [" Kim", "'s"], [" A", "izen"], ["ver", "se"], [" el", "se"], [" be", "ar"], [" f", "ern"], [" b", "ro"], [" h", "or"], [" hor", "se"], [" b", "ou"], ["r", "y"], [" bl", "ink"], ["an", "t"], [" Nin", "a's"], [" Gyan", "'s"], ["u", "es"], ["en", "a's"], [" t", "in"], [" tin", "y"], [" dog", "s"], [" te", "mp"], [" se", "al"], [" sh", "op"], [" Vik", "'s"], [" pl", "a"], [" pla", "ce"], [" kee", "p"], [" fal", "se"], [" Noah", "'s"], [" A", "re"], ["ak", "er"], [" Than", "ks"], [" d", "e"], [" Aiko", "'s"], [" he", "ron"], [" in", "t"], [" int", "o"], ["in", "ter"], ["i", "et"], [" de", "er"], [" T", "ara's"], [" insect", "s"], [" be", "es"], ["he", "r"], [" Omar", "'s"], [" o", "pp"], [" opp", "os"], [" oppos", "ite"], [" S", "ay"], [" s", "ky"], [" l", "ike"], [" Yuki", "'s"], [" co", "m"], [" com", "es"], [" gre", "at"], [" f", "all"], [" w", "inter"], [" as", "k"], [" di", "d"], [" se", "qu"], [" sequ", "ence"], ["m", "et"], ["e", "at"], [" N", "ice"], [" alphabetical", "ly"], [" Rep", "eat"], [" e", "ight"], ["by", "e"], [" Ev", "a's"], [" An", "y"], [" Any", "t"], ["u", "re"], ["t", "le"], ["t", "en"], [" le", "mon"], [" se", "ven"], [" car", "p"], [" Sp", "ain"], [" b", "as"], ["ar", "s"], [" W", "ater"], [" exp", "l"], [" expl", "ain"], [" sh", "or"], [" shor", "ter"], [" L", "is"], ["ri", "b"], [" T", "urn"], [" to", "m"], [" s", "ol"], [" sol", "ar"], [" s", "y"], [" sy", "st"], [" syst", "em"], [" m", "orn"], [" morn", "ing"], ["e", "b"], ["ag", "le"], [" To", "by"], [" M", "iko"], [" comp", "u"], [" compu", "ter"], [" p", "rog"], [" prog", "r"], [" progr", "am"], ["l", "ee"], ["lee", "p"], [" g", "ood"], [" E", "ach"], [" f", "a"], [" German", "y"], [" g", "row"], ["c", "rib"], ["crib", "e"], [" train", "s"], [" B", "e"], ["p", "e"], [" f", "our"], [" bou", "g"], [" boug", "ht"], [" tr", "ue"], [" O", "ll"], [" Oll", "i"], [" Olli", "e"], [" mo", "on"], ["ig", "er"], [" F", "r"], [" Fr", "ance"], [" ha", "m"], [" ham", "mer"], [" with", "out"], [" me", "l"], ["l", "ad"], ["b", "ia"], [" at", "e"], [" frog", "s"], [" N", "ala"], [" R", "u"], [" Ru", "by"], [" t", "ell"], [" Good", "bye"], [" M", "ake"], [" ", "very"], ["an", "s"], ["out", "h"], [" A", "ust"], ["u", "b"], [" A", "fter"], [" sh", "ort"], [" short", "est"], [" F", "i"], [" Fi", "fi"], [" B", "y"], [" By", "e"], [" gre", "ater"], [" ", "en"], [" mel", "on"], [" M", "ac"], [" Mac", "B"], [" MacB", "ook"], [" L", "una"], [" B", "ob"], [" Bob", "o"], ["u", "g"], [" t", "ri"], [" en", "g"], [" y", "o"], [" A", "t"], ["ar", "n"], ["i", "f"], [" tr", "ay"], [" of", "f"], ["o", "ol"], [" P", "ip"], [" Pip", "a"], [" c", "he"], ["ap", "ore"], ["p", "t"], [" hi", "i"], [" C", "h"], [" sa", "il"], [" sail", "or"], [" el", "m"], [" we", "b"], [" we", "aker"], ["t", "on"], [" c", "ed"], [" ced", "ar"], [" app", "ear"], [" L", "ook"], [" Look", "ing"], [" sh", "ows"], [" m", "ount"], [" mount", "ain"], [" Re", "ad"], [" Read", "y"], [" o", "kay"], [" s", "im"], [" sim", "ple"], [" C", "oc"], [" Coc", "o"], [" l", "ast"], [" E", "art"], [" Eart", "h"], ["i", "st"], [" B", "ang"], ["at", "h"], [" me", "ans"], [" Zane", "'s"], [" As", "k"], [" k", "ing"], ["he", "re"], [" me", "et"], [" S", "w"], [" O", "kay"], [" Anyt", "hing"], [" w", "ant"], [" R", "ome"], [" da", "is"], [" dais", "y"], [" web", "s"], ["d", "on"], [" tri", "ang"], [" triang", "le"], ["h", "s"], [" s", "qu"], [" squ", "are"], ["an", "a"], [" g", "ard"], [" gard", "en"], [" f", "ar"], [" tall", "est"], ["at", "ur"], [" what", "'s"], [" ", "un"], [" p", "ain"], [" eng", "ine"], [" c", "row"], ["or", "row"], [" S", "ing"], [" Sing", "apore"], ["ite", "d"], ["k", "a"], [" ro", "b"], [" S", "outh"], ["i", "x"], ["in", "a"], [" clou", "ds"], [" l", "and"], [" than", "ks"], ["t", "ed"], [" e", "ven"], [" even", "ing"], [" ", "q"], ["il", "k"], [" sw", "an"], [" w", "ee"], ["o", "k"], ["a", "ir"], ["al", "m"], ["c", "i"], [" ", "umb"], [" umb", "re"], [" umbre", "ll"], [" umbrell", "a"], [" w", "ind"], [" a", "fter"], [" t", "ul"], [" tul", "ip"], [" l", "an"], [" m", "ont"], [" mont", "hs"], ["k", "et"], [" wh", "ich"], [" min", "ut"], [" minut", "es"], ["g", "en"], [" I", "'"], [" I'", "m"], [" S", "ee"], [" P", "le"], [" Ple", "ase"], [" wind", "ow"], [" f", "lower"], [" ", "rain"], [" ro", "cks"], [" fast", "est"], [" wee", "k"], ["a", "w"], ["t", "s"], [" pain", "ted"], [" for", "est"], [" n", "ice"], ["at", "es"], [" m", "ilk"], [" pe", "ach"], [" d", "onkey"], [" v", "ase"], [" f", "irst"], ["x", "ic"], ["xic", "o"], [" continent", "s"], [" ", "urn"], [" you", "n"], [" z", "oo"], [" b", "ack"], [" back", "w"], [" backw", "ar"], [" backwar", "ds"], [" N", "ame"], [" b", "ee"], [" Emil", "'s"], [" Wren", "'s"], [" A", "ra"], ["o", "on"], [" n", "ut"], [" tom", "orrow"], [" do", "ing"], ["c", "a"], [" cl", "os"], [" clos", "est"], [" kit", "ten"], [" k", "o"], [" ko", "ala"], [" ri", "bb"], [" ribb", "on"], [" gr", "ap"], [" grap", "e"], [" l", "ig"], [" lig", "h"], [" ligh", "ter"], [" C", "ol"], [" Col", "om"], [" h", "on"], [" hon", "ey"], [" temp", "er"], [" temper", "at"], [" temperat", "ure"], [" d", "eg"], [" deg", "rees"], [" C", "els"], [" Cels", "i"], [" Celsi", "us"], ["l", "in"], [" b", "re"], [" fal", "c"], [" falc", "on"], [" e", "agle"], [" sp", "in"], [" h", "un"], [" hun", "t"], [" ", "vi"], [" o", "ur"], [" planet", "s"], [" hour", "s"], [" f", "ree"], [" free", "z"], [" M", "er"], [" Mer", "c"], [" Merc", "ur"], [" Mercur", "y"], [" un", "der"], [" d", "ra"], [" dra", "g"], [" drag", "on"], [" lan", "ter"], [" lanter", "n"], [" ex", "am"], [" exam", "p"], [" examp", "les"], [" sha", "d"], [" shad", "ow"], [" m", "ir"], [" mir", "r"], [" mirr", "or"], [" s", "il"], [" sil", "ver"], [" Chen", "'s"], [" youn", "ger"], [" s", "ound"], [" U", "n"], [" Un", "ited"], [" sha", "pe"], [" P", "lan"], [" Plan", "ts"], [" l", "ater"], [" j", "ack"], [" jack", "et"], [" is", "land"], [" p", "ill"], [" pill", "ow"], [" s", "al"], ["e", "w"], ["ct", "s"], [" m", "ix"], [" mix", "ing"], [" he", "l"], [" hel", "met"], [" ra", "bb"], [" rabb", "it"], [" chair", "s"], ["ren", "ch"], [" Sp", "ell"], [" re", "verse"], [" col", "d"], [" t", "rees"], [" an", "ch"], [" anch", "or"], [" c", "orn"], [" P", "i"], [" Pi", "a's"], [" Devi", "'s"], [" L", "ena's"], [" ", "us"], ["l", "s"], [" w", "rot"], [" wrot", "e"], ["ul", "iet"], [" t", "ake"], [" spoon", "s"], [" o", "ven"], [" Um", "a's"], ["ur", "key"], [" N", "ew"], ["y", "pt"], ["r", "us"], [" s", "leep"], [" Re", "verse"], [" carp", "et"], [" z", "eb"], [" zeb", "ra"], [" i", "v"], [" iv", "y"], [" y", "arn"], [" stat", "ues"], [" do", "ve"], [" T", "h"], [" Mon", "a's"], [" Sami", "'s"], [" W", "e"], ["in", "es"], [" Lis", "a"], [" b", "ut"], [" color", "s"], [" b", "a"], [" fruit", "s"], [" bas", "ket"], [" pl", "e"], [" ple", "ase"], [" s", "lower"], [" Bel", "a's"], [" Han", "a's"], ["h", "il"], ["ook", "s"], [" M", "e"], [" Me", "xico"], ["or", "way"], [" pen", "c"], [" penc", "il"], [" q", "ue"], [" rock", "et"], [" Asha", "'s"], [" w", "hen"], ["r", "al"], ["ral", "ia"], [" b", "er"], [" ber", "ry"], ["at", "o"], [" J", "ena's"], ["c", "ot"], ["cot", "land"], [" W", "as"], [" Was", "hing"], [" Washing", "ton"], [" w", "ell"], ["g", "i"], [" H", "a"], [" b", "ot"], [" bot", "tle"], [" g", "uit"], [" guit", "ar"], [" vi", "ol"], [" viol", "in"], ["er", "s"], ["s", "ia"], ["t", "t"], ["es", "h"], [" A", "b"], [" Ab", "u"], [" a", "r"], [" h", "ot"], [" c", "am"], [" cam", "era"], [" que", "en"], [" m", "y"], [" Rome", "o"], [" J", "uliet"], [" s", "ch"], [" sch", "ool"], [" m", "onkey"], ["ak", "ist"], ["akist", "an"], ["et", "her"], ["ether", "lan"], ["etherlan", "ds"], ["gi", "um"], [" drink", "s"], ["ou", "p"], [" C", "l"], [" a", "c"], [" ac", "orn"], ["us", "sia"], ["rain", "e"], [" m", "ag"], [" mag", "n"], [" magn", "et"], [" vegeta", "bles"], [" l", "a"], [" V", "er"], [" Ver", "a's"], ["en", "mar"], ["enmar", "k"], [" T", "w"], ["lad", "esh"], ["ub", "a"], [" j", "ell"], [" jell", "y"], [" need", "le"], [" temp", "le"], [" can", "d"], [" cand", "le"], [" Iris", "'s"], [" Kofi", "'s"], ["n", "am"], [" ne", "w"], [" E", "g"], [" Eg", "ypt"], [" do", "ct"], [" doct", "or"], [" ba", "by"], [" tool", "s"], [" t", "ree"], [" g", "oo"], [" goo", "se"], [" T", "urkey"], ["don", "es"], ["dones", "ia"], [" Ev", "er"], ["ort", "ug"], ["ortug", "al"], [" st", "ar"], [" he", "y"], ["d", "e"], ["ree", "ce"], ["f", "f"], [" v", "all"], [" vall", "ey"], [" ri", "ce"], [" Fumi", "'s"], [" s", "now"], [" N", "orway"], ["iger", "ia"], [" c", "ast"], [" cast", "le"], [" la", "dd"], [" ladd", "er"], [" e", "le"], [" t", "hat"], ["ri", "a"], ["r", "an"], ["ll", "o"], [" Aust", "ralia"], [" i", "g"], [" ig", "l"], [" igl", "oo"], [" des", "cribe"], [" D", "es"], [" Des", "cribe"], [" j", "ob"], [" job", "s"], [" bri", "d"], [" brid", "g"], [" bridg", "e"], [" P", "akistan"], ["at", "ar"], [" P", "re"], ["ad", "a"], ["er", "u"], ["en", "y"], ["eny", "a"], ["ep", "al"], [" far", "m"], [" c", "alm"], ["it", "z"], ["itz", "er"], ["itzer", "land"], ["f", "ri"], ["fri", "ca"], [" lo", "ve"], ["re", "land"], ["ra", "z"], ["raz", "il"], [" qu", "il"], [" quil", "t"], [" w", "ag"], [" wag", "on"], [" re", "ad"], [" n", "ap"], [" nap", "k"], [" napk", "in"], [" S", "cotland"], [" ", "Q"], ["hil", "i"], ["hili", "pp"], ["hilipp", "ines"], ["u", "d"], ["ud", "i"], [" fa", "v"], [" fav", "or"], [" favor", "ite"], ["ol", "and"], [" he", "llo"], ["ed", "en"], [" c", "hat"], [" l", "it"], [" lit", "tle"], [" fa", "cts"], [" m", "ath"], [" U", "k"], [" Uk", "raine"], [" car", "rot"], [" ol", "ive"], [" t", "iger"], [" sh", "o"], [" yo", "g"], [" yog", "ur"], [" yogur", "t"], [" Y", "ara's"], [" Th", "ur"], [" Thur", "s"], [" Thurs", "day"], [" D", "enmark"], ["e", "z"], ["ra", "q"], [" in", "s"], [" ins", "i"], [" insi", "de"], [" f", "ile"], [" a", "izen"], ["ha", "il"], ["hail", "and"], [" N", "etherlands"], [" F", "in"], [" Fin", "land"], [" Ir", "an"], [" Bel", "gium"], ["c", "o"], [" Bang", "ladesh"], [" li", "z"], [" liz", "ard"], [" tr", "out"], [" spider", "s"], [" owl", "s"], ["ent", "y"], [" so", "met"], [" somet", "hing"], [" go", "ing"], [" G", "o"], [" Go", "ing"], [" Be", "es"], ["ra", "el"], ["or", "oc"], ["oroc", "co"], ["ore", "a"], [" N", "epal"], [" N", "igeria"], [" te", "as"], [" teas", "p"], [" teasp", "oon"], [" d", "ang"], [" dang", "er"], [" story", "b"], [" storyb", "ook"], [" V", "iet"], [" Viet", "nam"], [" E", "d"], [" Ed", "in"], [" Edin", "b"], [" Edinb", "ur"], [" Edinbur", "g"], [" Edinburg", "h"], ["en", "ez"], ["enez", "u"], ["enezu", "el"], ["enezuel", "a"], ["e", "al"], ["eal", "and"], [" own", "er"], [" M", "y"], [" R", "ussia"], ["m", "e"], [" was", "s"], [" wass", "up"], [" wh", "o"], [" G", "reece"], [" C", "uba"], ["E", "R"], [" P", "ortugal"], [" P", "oland"], [" sm", "art"], [" qu", "ite"], [" c", "are"], [" hii", "i"], [" Aust", "ria"], [" w", "ha"], [" wha", "le"], [" Ch", "ina"], [" fin", "e"], [" che", "ck"], [" check", "ing"], [" B", "razil"], [" s", "oup"], [" h", "oll"], [" holl", "y"], [" An", "k"], [" Ank", "ara"], [" h", "um"], [" hum", "an"], [" ol", "d"], [" re", "c"], [" rec", "ent"], [" recent", "ly"], [" bas", "ical"], [" basical", "ly"], [" new", "b"], [" newb", "orn"], [" l", "ol"], [" G", "lad"], [" l", "ik"], [" lik", "ed"], [" s", "up"], [" to", "o"], [" Sw", "itzerland"], [" Can", "ada"], [" Tw", "o"], [" Can", "b"], [" Canb", "er"], [" Canber", "ra"], ["o", "ck"], [" Ha", "v"], [" Hav", "ana"], ["ff", "ee"], [" t", "una"], [" cl", "ay"], [" st", "or"], [" stor", "m"], [" co", "d"], [" F", "ri"], [" Fri", "day"], [" Nils", "'s"], [" In", "donesia"], [" Lis", "b"], [" Lisb", "on"], ["d", "ia"], [" Q", "atar"], [" Colom", "bia"], ["o", "g"], [" T", "hailand"], [" T", "e"], [" Te", "h"], [" Teh", "ran"], [" L", "im"], [" Lim", "a"], [" K", "enya"], [" o", "k"], [" l", "ap"], [" lap", "t"], [" lapt", "op"], [" I", "reland"], [" O", "s"], [" Os", "lo"], [" bre", "ad"], [" W", "ed"], [" Wed", "n"], [" Wedn", "es"], [" Wednes", "day"], [" T", "ues"], [" Tues", "day"], [" M", "ount"], [" Ever", "est"], [" Earth", "'s"], [" n", "atur"], [" natur", "al"], [" s", "at"], [" sat", "ell"], [" satell", "ite"], [" M", "os"], [" Mos", "c"], [" Mosc", "ow"], [" C", "op"], [" Cop", "en"], [" Copen", "ha"], [" Copenha", "gen"], ["a", "b"], [" C", "air"], [" Cair", "o"], [" V", "enezuela"], [" P", "ac"], [" Pac", "if"], [" Pacif", "ic"], [" O", "cean"], [" rob", "ot"], [" A", "m"], [" Am", "st"], [" Amst", "er"], [" Amster", "d"], [" Amsterd", "am"], [" B", "rus"], [" Brus", "se"], [" Brusse", "ls"], [" C", "ows"], [" Sw", "eden"], [" A", "w"], [" app", "re"], [" appre", "ci"], [" appreci", "at"], [" appreciat", "e"], [" K", "orea"], ["ir", "ates"], [" co", "ffee"], [" S", "atur"], [" Satur", "day"], [" he", "lo"], [" K", "y"], [" Ky", "iv"], [" Is", "l"], [" Isl", "am"], [" Islam", "ab"], [" Islamab", "ad"], [" Do", "ha"], [" I", "raq"], [" h", "lo"], [" Ch", "ile"], [" P", "eru"], [" A", "frica"], ["al", "ays"], ["alays", "ia"], [" St", "ock"], [" Stock", "h"], [" Stockh", "ol"], [" Stockhol", "m"], ["al", "y"], [" not", "eb"], [" noteb", "ook"], [" d", "ri"], [" dri", "ll"], [" rob", "in"], [" b", "an"], [" ban", "ana"], [" so", "d"], [" sod", "a"], [" l", "ad"], [" lad", "le"], ["h", "i"], [" S", "now"], [" j", "ok"], [" jok", "e"], [" Wh", "y"], [" Z", "ealand"], [" S", "ri"], [" L", "an"], [" Lan", "ka"], [" B", "ag"], [" Bag", "h"], [" Bagh", "d"], [" Baghd", "ad"], [" B", "ern"], [" O", "tt"], [" Ott", "aw"], [" Ottaw", "a"], [" tw", "el"], [" twel", "ve"], [" At", "hen"], [" Athen", "s"], [" S", "leep"], [" o", "ak"], [" c", "ur"], [" cur", "ry"], [" Mon", "day"], [" che", "et"], [" cheet", "ah"], [" G", "rass"], [" Han", "o"], [" Hano", "i"], [" J", "ak"], [" Jak", "art"], [" Jakart", "a"], [" P", "hilippines"], [" M", "an"], [" Man", "il"], [" Manil", "a"], [" S", "a"], [" Sa", "udi"], [" Ara", "bia"], [" V", "i"], [" Vi", "en"], [" Vien", "n"], [" Vienn", "a"], [" F", "rench"], [" B", "og"], [" Bog", "ot"], [" Bogot", "a"], [" Bang", "k"], [" Bangk", "ok"], [" As", "ia"], [" H", "els"], [" Hels", "ink"], [" Helsink", "i"], [" Is", "rael"], [" so", "me"], [" some", "one"], [" as", "ks"], [" N", "air"], [" Nair", "ob"], [" Nairob", "i"], [" S", "ure"], [" w", "ill"], [" tr", "y"], [" L", "e"], [" Le", "on"], [" Leon", "ard"], [" Leonard", "o"], [" V", "in"], [" Vin", "ci"], [" D", "ub"], [" Dub", "lin"], [" us", "e"], [" In", "dia"], ["es", "e"], [" sp", "here"], [" H", "op"], [" Hop", "e"], [" S", "ant"], [" Sant", "i"], [" Santi", "ag"], [" Santiag", "o"], [" S", "e"], [" K", "ath"], [" Kath", "m"], [" Kathm", "and"], [" Kathmand", "u"], [" M", "orocco"], [" N", "ile"], [" of", "ten"], [" j", "u"], [" ju", "ice"], [" e", "very"], [" li", "on"], [" answer", "ing"], [" l", "ooks"], [" M", "ars"], [" bo", "il"], [" bo", "ils"], [" Ra", "b"], [" Rab", "at"], [" Sp", "an"], [" Span", "ish"], [" Be", "i"], [" Bei", "j"], [" Beij", "ing"], [" B", "l"], [" h", "y"], [" hy", "d"], [" hyd", "rog"], [" hydrog", "en"], [" o", "x"], [" ox", "y"], [" oxy", "gen"], [" B", "ras"], [" Bras", "il"], [" Brasil", "ia"], [" ve", "h"], [" veh", "ic"], [" vehic", "le"], [" p", "ine"], ["c", "le"], [" on", "ion"], [" S", "un"], [" Sun", "day"], [" c", "en"], [" cen", "ter"], [" U", "S"], [" US", "A"], [" W", "ars"], [" Wars", "aw"], [" freez", "e"], [" freez", "es"], [" Ara", "b"], [" Em", "irates"], [" It", "aly"], [" m", "et"], ["i", "es"], [" tw", "enty"], [" J", "up"], [" Jup", "it"], [" Jupit", "er"], [" me", "ow"], [" St", "ates"], [" Japan", "ese"], [" sun", "l"], [" sunl", "ight"], [" so", "il"], [" M", "alaysia"], [" R", "ed"], [" D", "ha"], [" Dha", "ka"], [" Bl", "ue"], [" E", "n"], [" En", "g"], [" Eng", "land"], ["p", "y"], [" se", "as"], [" seas", "on"], [" b", "en"], [" ben", "ch"], [" be", "agle"], [" sal", "mon"], [" mar", "ble"], [" st", "e"], [" ste", "am"], [" c", "a"], [" ca", "ct"], [" cact", "us"], [" s", "ent"], [" sent", "ence"], [" pe", "b"], [" peb", "ble"], ["mer", "s"], [" than", "k"], [" B", "er"], [" Ber", "lin"], [" W", "ill"], [" Will", "i"], [" Willi", "am"], [" S", "ha"], [" Sha", "k"], [" Shak", "es"], [" Shakes", "pe"], [" Shakespe", "are"], [" Abu", "j"], [" Abuj", "a"], [" Cl", "as"], [" Clas", "s"], [" Class", "if"], [" Classif", "y"], [" pe", "a"], [" tom", "ato"], ["O", "N"], [" ra", "d"], [" rad", "ish"], [" M", "ad"], [" Mad", "ri"], [" Madri", "d"], [" C", "ara"], [" Cara", "c"], [" Carac", "as"], [" C", "ity"], ["g", "ent"], ["gent", "ina"], [" i", "f"], ["A", "N"], [" s", "ang"], [" t", "en"], [" ele", "ven"], [" ask", "ing"], [" b", "u"], ["b", "o"], [" w", "oo"], [" woo", "f"], [" R", "i"], [" Ri", "y"], [" Riy", "ad"], [" Riyad", "h"], [" Than", "k"], [" W", "here"], [" h", "ome"], [" sho", "ve"], [" shove", "l"], [" pon", "d"], ["k", "e"], [" bl", "ood"], [" sal", "ad"], [" p", "ug"], [" te", "a"], [" st", "ool"], [" b", "aker"], [" met", "ro"], [" Pre", "t"], [" Pret", "or"], [" Pretor", "ia"], [" P", "ar"], [" Par", "is"], [" L", "on"], [" Lon", "don"], [" sw", "e"], [" swe", "et"], [" pl", "i"], [" pli", "ers"], [" p", "alm"], [" You", "'"], [" You'", "re"], [" w", "el"], [" wel", "c"], [" welc", "ome"], [" Colom", "bo"], [" J", "er"], [" Jer", "us"], [" Jerus", "al"], [" Jerusal", "em"], [" To", "ky"], [" Toky", "o"], [" bre", "at"], [" breat", "he"], [" w", "rench"], [" ra", "ke"], [" c", "her"], [" cher", "ry"], [" T", "r"], [" Tr", "ue"], [" p", "ot"], [" pot", "ato"], ["E", "T"], [" we", "ar"], [" corn", "ers"], [" c", "ook"], [" i", "ce"], [" a", "p"], [" p", "il"], [" be", "et"], [" beet", "le"], [" R", "o"], [" Ro", "cks"], [" da", "ir"], [" dair", "y"], [" ar", "m"], [" arm", "c"], [" armc", "hair"], [" bou", "l"], [" boul", "der"]]}